{
  "version": "1.0",
  "truncation": null,
  "padding": null,
  "added_tokens": [
    {
      "id": 0,
      "content": "<mask>",
      "single_word": false,
      "lstrip": false,
      "rstrip": false,
      "normalized": false,
      "special": true
    },
    {
      "id": 1,
      "content": "</s>",
      "single_word": false,
      "lstrip": false,
      "rstrip": false,
      "normalized": false,
      "special": true
    },
    {
      "id": 2,
      "content": "<s>",
      "single_word": false,
      "lstrip": false,
      "rstrip": false,
      "normalized": false,
      "special": true
    },
    {
      "id": 3,
      "content": "<cls>",
      "single_word": false,
      "lstrip": false,
      "rstrip": false,
      "normalized": false,
      "special": true
    },
    {
      "id": 4,
      "content": "<pad>",
      "single_word": false,
      "lstrip": false,
      "rstrip": false,
      "normalized": false,
      "special": true
    },
    {
      "id": 5,
      "content": "<sep>",
      "single_word": false,
      "lstrip": false,
      "rstrip": false,
      "normalized": false,
      "special": true
    },
    {
      "id": 6,
      "content": "<unk>",
      "single_word": false,
      "lstrip": false,
      "rstrip": false,
      "normalized": false,
      "special": true
    }
  ],
  "normalizer": {
    "type": "Sequence",
    "normalizers": [
      {
        "type": "Replace",
        "pattern": {
          "String": "``"
        },
        "content": "\""
      },
      {
        "type": "Replace",
        "pattern": {
          "String": "''"
        },
        "content": "\""
      },
      {
        "type": "NFD"
      },
      {
        "type": "Lowercase"
      },
      {
        "type": "StripAccents"
      },
      {
        "type": "Replace",
        "pattern": {
          "Regex": " {2,}"
        },
        "content": " "
      },
      {
        "type": "Replace",
        "pattern": {
          "Regex": "[^\\x00-\\x7F]+"
        },
        "content": ""
      }
    ]
  },
  "pre_tokenizer": {
    "type": "Whitespace"
  },
  "post_processor": {
    "type": "TemplateProcessing",
    "single": [
      {
        "Sequence": {
          "id": "A",
          "type_id": 0
        }
      },
      {
        "SpecialToken": {
          "id": "<sep>",
          "type_id": 0
        }
      }
    ],
    "pair": [
      {
        "SpecialToken": {
          "id": "<cls>",
          "type_id": 0
        }
      },
      {
        "Sequence": {
          "id": "A",
          "type_id": 0
        }
      },
      {
        "SpecialToken": {
          "id": "<sep>",
          "type_id": 0
        }
      },
      {
        "Sequence": {
          "id": "B",
          "type_id": 0
        }
      },
      {
        "SpecialToken": {
          "id": "<sep>",
          "type_id": 0
        }
      }
    ],
    "special_tokens": {
      "<cls>": {
        "id": "<cls>",
        "ids": [
          3
        ],
        "tokens": [
          "<cls>"
        ]
      },
      "<sep>": {
        "id": "<sep>",
        "ids": [
          5
        ],
        "tokens": [
          "<sep>"
        ]
      }
    }
  },
  "decoder": {
    "type": "WordPiece",
    "prefix": "##",
    "cleanup": true
  },
  "model": {
    "type": "WordPiece",
    "unk_token": "<unk>",
    "continuing_subword_prefix": "##",
    "max_input_chars_per_word": 100,
    "vocab": {
      "<mask>": 0,
      "</s>": 1,
      "<s>": 2,
      "<cls>": 3,
      "<pad>": 4,
      "<sep>": 5,
      "<unk>": 6,
      "\u0000": 7,
      "\u0001": 8,
      "\u0002": 9,
      "\u0003": 10,
      "\u0004": 11,
      "\u0005": 12,
      "\u0006": 13,
      "\u0007": 14,
      "\b": 15,
      "\u000e": 16,
      "\u000f": 17,
      "\u0010": 18,
      "\u0011": 19,
      "\u0012": 20,
      "\u0013": 21,
      "\u0014": 22,
      "\u0015": 23,
      "\u0016": 24,
      "\u0017": 25,
      "\u0018": 26,
      "\u0019": 27,
      "\u001a": 28,
      "\u001b": 29,
      "\u001c": 30,
      "\u001d": 31,
      "\u001e": 32,
      "\u001f": 33,
      "!": 34,
      "\"": 35,
      "#": 36,
      "$": 37,
      "%": 38,
      "&": 39,
      "'": 40,
      "(": 41,
      ")": 42,
      "*": 43,
      "+": 44,
      ",": 45,
      "-": 46,
      ".": 47,
      "/": 48,
      "0": 49,
      "1": 50,
      "2": 51,
      "3": 52,
      "4": 53,
      "5": 54,
      "6": 55,
      "7": 56,
      "8": 57,
      "9": 58,
      ":": 59,
      ";": 60,
      "<": 61,
      "=": 62,
      ">": 63,
      "?": 64,
      "@": 65,
      "[": 66,
      "\\": 67,
      "]": 68,
      "^": 69,
      "_": 70,
      "`": 71,
      "a": 72,
      "b": 73,
      "c": 74,
      "d": 75,
      "e": 76,
      "f": 77,
      "g": 78,
      "h": 79,
      "i": 80,
      "j": 81,
      "k": 82,
      "l": 83,
      "m": 84,
      "n": 85,
      "o": 86,
      "p": 87,
      "q": 88,
      "r": 89,
      "s": 90,
      "t": 91,
      "u": 92,
      "v": 93,
      "w": 94,
      "x": 95,
      "y": 96,
      "z": 97,
      "{": 98,
      "|": 99,
      "}": 100,
      "~": 101,
      "": 102,
      "##t": 103,
      "##r": 104,
      "##i": 105,
      "##b": 106,
      "##u": 107,
      "##o": 108,
      "##n": 109,
      "##1": 110,
      "##7": 111,
      "##e": 112,
      "##m": 113,
      "##s": 114,
      "##l": 115,
      "##k": 116,
      "##a": 117,
      "##p": 118,
      "##j": 119,
      "##c": 120,
      "##h": 121,
      "##z": 122,
      "##2": 123,
      "##0": 124,
      "##4": 125,
      "##g": 126,
      "##8": 127,
      "##6": 128,
      "##d": 129,
      "##w": 130,
      "##9": 131,
      "##5": 132,
      "##v": 133,
      "##x": 134,
      "##y": 135,
      "##f": 136,
      "##q": 137,
      "##3": 138,
      "##_": 139,
      "##-": 140,
      "##+": 141,
      "##/": 142,
      "##]": 143,
      "##)": 144,
      "##\\": 145,
      "##}": 146,
      "##\"": 147,
      "##;": 148,
      "##>": 149,
      "##(": 150,
      "##.": 151,
      "##%": 152,
      "##^": 153,
      "##*": 154,
      "##<": 155,
      "##:": 156,
      "##,": 157,
      "##=": 158,
      "##'": 159,
      "##[": 160,
      "##?": 161,
      "##&": 162,
      "##@": 163,
      "##~": 164,
      "##$": 165,
      "##|": 166,
      "##{": 167,
      "###": 168,
      "##`": 169,
      "##!": 170,
      "##\u0002": 171,
      "##\u0003": 172,
      "##\b": 173,
      "##\u001d": 174,
      "##\u0004": 175,
      "##\u0005": 176,
      "##\u0006": 177,
      "##\u0007": 178,
      "##\u0019": 179,
      "##": 180,
      "##\u0013": 181,
      "##\u0014": 182,
      "##\u001a": 183,
      "##\u0011": 184,
      "##\u0017": 185,
      "##\u0016": 186,
      "##\u0001": 187,
      "##\u0012": 188,
      "##\u0010": 189,
      "##\u0015": 190,
      "##\u000e": 191,
      "##\u001c": 192,
      "##\u001e": 193,
      "##\u001f": 194,
      "##\u0018": 195,
      "##\u000f": 196,
      "##\u001b": 197,
      "##\u0000": 198,
      "th": 199,
      "##er": 200,
      "the": 201,
      "##in": 202,
      "##on": 203,
      "##at": 204,
      "##en": 205,
      "##es": 206,
      "##ed": 207,
      "##or": 208,
      "##nd": 209,
      "##ing": 210,
      "in": 211,
      "##al": 212,
      "of": 213,
      "##ar": 214,
      "##ou": 215,
      "##an": 216,
      "##it": 217,
      "to": 218,
      "##is": 219,
      "and": 220,
      "##ic": 221,
      "##ion": 222,
      "##as": 223,
      "##re": 224,
      "##om": 225,
      "##ent": 226,
      "##le": 227,
      "##el": 228,
      "##ct": 229,
      "##il": 230,
      "##et": 231,
      "##ro": 232,
      "##st": 233,
      "re": 234,
      "##ot": 235,
      "be": 236,
      "wh": 237,
      "##ly": 238,
      "##id": 239,
      "##ut": 240,
      "is": 241,
      "for": 242,
      "on": 243,
      "that": 244,
      "##ve": 245,
      "st": 246,
      "##ur": 247,
      "##ch": 248,
      "##ad": 249,
      "##ce": 250,
      "##ow": 251,
      "##ol": 252,
      "##ig": 253,
      "##ation": 254,
      "it": 255,
      "##ay": 256,
      "##am": 257,
      "##im": 258,
      "##se": 259,
      "as": 260,
      "##ir": 261,
      "##ith": 262,
      "an": 263,
      "##ver": 264,
      "con": 265,
      "with": 266,
      "al": 267,
      "##th": 268,
      "##ter": 269,
      "##ere": 270,
      "##ul": 271,
      "was": 272,
      "you": 273,
      "de": 274,
      "pro": 275,
      "he": 276,
      "##ess": 277,
      "sh": 278,
      "##ers": 279,
      "su": 280,
      "se": 281,
      "com": 282,
      "at": 283,
      "fr": 284,
      "ch": 285,
      "ha": 286,
      "or": 287,
      "##pp": 288,
      "##est": 289,
      "##ra": 290,
      "##ment": 291,
      "##ld": 292,
      "##ate": 293,
      "ex": 294,
      "##if": 295,
      "##od": 296,
      "##ge": 297,
      "##ill": 298,
      "ne": 299,
      "not": 300,
      "##ant": 301,
      "##ri": 302,
      "##ist": 303,
      "this": 304,
      "are": 305,
      "##ab": 306,
      "##us": 307,
      "##ain": 308,
      "##igh": 309,
      "we": 310,
      "##os": 311,
      "##ck": 312,
      "by": 313,
      "##ity": 314,
      "##op": 315,
      "##em": 316,
      "##ect": 317,
      "##ak": 318,
      "from": 319,
      "##um": 320,
      "##iv": 321,
      "##ore": 322,
      "##ould": 323,
      "##ive": 324,
      "##un": 325,
      "##ort": 326,
      "have": 327,
      "##art": 328,
      "##ies": 329,
      "##and": 330,
      "##ud": 331,
      "sp": 332,
      "le": 333,
      "but": 334,
      "his": 335,
      "##ight": 336,
      "pr": 337,
      "##ust": 338,
      "en": 339,
      "##ell": 340,
      "ab": 341,
      "pl": 342,
      "##our": 343,
      "##ard": 344,
      "un": 345,
      "##gh": 346,
      "##ally": 347,
      "##end": 348,
      "do": 349,
      "so": 350,
      "##all": 351,
      "##ich": 352,
      "##pt": 353,
      "ar": 354,
      "ad": 355,
      "can": 356,
      "they": 357,
      "all": 358,
      "tr": 359,
      "wor": 360,
      "##ated": 361,
      "##ome": 362,
      "##qu": 363,
      "me": 364,
      "res": 365,
      "cl": 366,
      "comp": 367,
      "im": 368,
      "lo": 369,
      "##ear": 370,
      "##ag": 371,
      "go": 372,
      "##out": 373,
      "us": 374,
      "##ci": 375,
      "##ap": 376,
      "##ure": 377,
      "##ie": 378,
      "##ough": 379,
      "##ction": 380,
      "app": 381,
      "20": 382,
      "##ast": 383,
      "had": 384,
      "##ost": 385,
      "cont": 386,
      "were": 387,
      "which": 388,
      "##ff": 389,
      "##cc": 390,
      "##ence": 391,
      "##ok": 392,
      "##her": 393,
      "##ous": 394,
      "has": 395,
      "sa": 396,
      "##ine": 397,
      "will": 398,
      "int": 399,
      "one": 400,
      "##per": 401,
      "dis": 402,
      "##ans": 403,
      "##ack": 404,
      "out": 405,
      "##ound": 406,
      "##pl": 407,
      "there": 408,
      "##age": 409,
      "fa": 410,
      "their": 411,
      "li": 412,
      "up": 413,
      "no": 414,
      "her": 415,
      "##ther": 416,
      "19": 417,
      "##og": 418,
      "ev": 419,
      "man": 420,
      "##ice": 421,
      "##iz": 422,
      "##able": 423,
      "##ical": 424,
      "##ong": 425,
      "##so": 426,
      "inc": 427,
      "##oun": 428,
      "##ach": 429,
      "who": 430,
      "am": 431,
      "more": 432,
      "if": 433,
      "##ber": 434,
      "##ind": 435,
      "##one": 436,
      "per": 437,
      "tim": 438,
      "##ary": 439,
      "##ide": 440,
      "ag": 441,
      "##ame": 442,
      "##fer": 443,
      "##ition": 444,
      "##ely": 445,
      "its": 446,
      "##ke": 447,
      "when": 448,
      "##ip": 449,
      "my": 450,
      "she": 451,
      "##ue": 452,
      "part": 453,
      "##ult": 454,
      "##ations": 455,
      "would": 456,
      "##ase": 457,
      "##ance": 458,
      "your": 459,
      "##au": 460,
      "##ib": 461,
      "##ia": 462,
      "##ign": 463,
      "##ish": 464,
      "##orm": 465,
      "inter": 466,
      "been": 467,
      "qu": 468,
      "te": 469,
      "##ire": 470,
      "about": 471,
      "new": 472,
      "##ens": 473,
      "##ial": 474,
      "##ake": 475,
      "##ru": 476,
      "what": 477,
      "how": 478,
      "fe": 479,
      "##ions": 480,
      "some": 481,
      "pre": 482,
      "##ory": 483,
      "##ents": 484,
      "co": 485,
      "kn": 486,
      "ind": 487,
      "##ac": 488,
      "##ond": 489,
      "##ass": 490,
      "also": 491,
      "##ry": 492,
      "time": 493,
      "##ose": 494,
      "other": 495,
      "##ord": 496,
      "bec": 497,
      "af": 498,
      "tw": 499,
      "year": 500,
      "comm": 501,
      "over": 502,
      "any": 503,
      "pe": 504,
      "##reat": 505,
      "##ree": 506,
      "gr": 507,
      "##ile": 508,
      "rec": 509,
      "##du": 510,
      "than": 511,
      "car": 512,
      "##ount": 513,
      "##vel": 514,
      "them": 515,
      "##ub": 516,
      "imp": 517,
      "work": 518,
      "##own": 519,
      "bl": 520,
      "rep": 521,
      "said": 522,
      "##ite": 523,
      "off": 524,
      "##ict": 525,
      "##ays": 526,
      "acc": 527,
      "fir": 528,
      "##--": 529,
      "##ors": 530,
      "sc": 531,
      "mar": 532,
      "ro": 533,
      "ser": 534,
      "und": 535,
      "##ress": 536,
      "##act": 537,
      "may": 538,
      "into": 539,
      "##ace": 540,
      "ph": 541,
      "##ph": 542,
      "our": 543,
      "em": 544,
      "des": 545,
      "##ings": 546,
      "like": 547,
      "##form": 548,
      "after": 549,
      "##00": 550,
      "cour": 551,
      "him": 552,
      "##enc": 553,
      "bo": 554,
      "##int": 555,
      "act": 556,
      "##itt": 557,
      "just": 558,
      "sy": 559,
      "bet": 560,
      "##ang": 561,
      "under": 562,
      "these": 563,
      "spe": 564,
      "col": 565,
      "##ick": 566,
      "##av": 567,
      "##ates": 568,
      "##ause": 569,
      "pat": 570,
      "##wn": 571,
      "fl": 572,
      "rel": 573,
      "first": 574,
      ".\"": 575,
      "cons": 576,
      "201": 577,
      "only": 578,
      "##ater": 579,
      "##ink": 580,
      "po": 581,
      "##erm": 582,
      "mo": 583,
      "two": 584,
      "def": 585,
      ").": 586,
      "##ild": 587,
      "##ep": 588,
      "##ail": 589,
      "##ade": 590,
      "##ved": 591,
      "could": 592,
      "##ied": 593,
      "get": 594,
      "##lic": 595,
      "peop": 596,
      "pres": 597,
      "see": 598,
      "##ian": 599,
      "br": 600,
      "gen": 601,
      "ever": 602,
      "##ific": 603,
      "sec": 604,
      "cr": 605,
      "att": 606,
      "people": 607,
      "ob": 608,
      "sub": 609,
      "##we": 610,
      "##ys": 611,
      "such": 612,
      "inv": 613,
      "##lud": 614,
      "##ual": 615,
      "##oc": 616,
      "##ery": 617,
      "did": 618,
      "##iss": 619,
      "dif": 620,
      "##ons": 621,
      "high": 622,
      "dec": 623,
      "reg": 624,
      "##ject": 625,
      "exp": 626,
      "then": 627,
      "##eth": 628,
      "##oll": 629,
      "##ious": 630,
      "##ments": 631,
      "thr": 632,
      "tra": 633,
      "add": 634,
      "stud": 635,
      "##oth": 636,
      "##amp": 637,
      "##fore": 638,
      "rem": 639,
      "##lect": 640,
      "most": 641,
      "##ood": 642,
      "prov": 643,
      "##urn": 644,
      "pos": 645,
      "##ced": 646,
      "because": 647,
      "back": 648,
      "court": 649,
      "##ating": 650,
      "id": 651,
      "supp": 652,
      "##old": 653,
      "even": 654,
      "where": 655,
      "need": 656,
      "##elf": 657,
      "la": 658,
      "##te": 659,
      "pol": 660,
      "sm": 661,
      "well": 662,
      "par": 663,
      "##ft": 664,
      "##pe": 665,
      "know": 666,
      "jo": 667,
      "trans": 668,
      "state": 669,
      "eff": 670,
      "now": 671,
      "through": 672,
      "ac": 673,
      "form": 674,
      "##ular": 675,
      "##cess": 676,
      "again": 677,
      "##ased": 678,
      "hel": 679,
      "ass": 680,
      "use": 681,
      "##ful": 682,
      "##iver": 683,
      "##ving": 684,
      "sur": 685,
      "##are": 686,
      "includ": 687,
      "inst": 688,
      "##ise": 689,
      "##gr": 690,
      "bu": 691,
      "##cial": 692,
      "##ks": 693,
      "),": 694,
      "##ility": 695,
      "##rib": 696,
      "every": 697,
      "##les": 698,
      "##olog": 699,
      "##ont": 700,
      "##iew": 701,
      "##ert": 702,
      "##ning": 703,
      "##ath": 704,
      "det": 705,
      "should": 706,
      "##ited": 707,
      "200": 708,
      "look": 709,
      "resp": 710,
      "mu": 711,
      "##uring": 712,
      "##ative": 713,
      "gu": 714,
      "mod": 715,
      "dist": 716,
      "##led": 717,
      "differ": 718,
      "sch": 719,
      "right": 720,
      "cor": 721,
      "##ces": 722,
      "##ween": 723,
      "years": 724,
      "##other": 725,
      "many": 726,
      "##als": 727,
      "disc": 728,
      "between": 729,
      "##ower": 730,
      "10": 731,
      "##stem": 732,
      "##ty": 733,
      "sign": 734,
      "char": 735,
      "way": 736,
      "##ward": 737,
      "ke": 738,
      "min": 739,
      "make": 740,
      "##ities": 741,
      "play": 742,
      "str": 743,
      "fin": 744,
      "med": 745,
      "##ible": 746,
      "pers": 747,
      "before": 748,
      "##ife": 749,
      "sim": 750,
      "produ": 751,
      "while": 752,
      "want": 753,
      "mon": 754,
      "long": 755,
      "system": 756,
      "end": 757,
      "very": 758,
      "gener": 759,
      "count": 760,
      "down": 761,
      "dep": 762,
      "those": 763,
      ",\"": 764,
      "##oup": 765,
      "ins": 766,
      "being": 767,
      "##ily": 768,
      "requ": 769,
      "##der": 770,
      "set": 771,
      "bel": 772,
      "wr": 773,
      "##row": 774,
      "##ss": 775,
      "made": 776,
      "##ational": 777,
      "##ange": 778,
      "op": 779,
      "##xt": 780,
      "##aint": 781,
      "good": 782,
      "##ble": 783,
      "pub": 784,
      "ear": 785,
      "fact": 786,
      "##ics": 787,
      "##ract": 788,
      "used": 789,
      "own": 790,
      "call": 791,
      "##ever": 792,
      "show": 793,
      "##rol": 794,
      "##cept": 795,
      "mem": 796,
      "##its": 797,
      "does": 798,
      "##ures": 799,
      "think": 800,
      "conc": 801,
      "##ution": 802,
      "##ention": 803,
      "here": 804,
      "cent": 805,
      "##oy": 806,
      "ret": 807,
      "though": 808,
      "found": 809,
      "world": 810,
      "##ently": 811,
      "ty": 812,
      "tri": 813,
      "##aking": 814,
      "##ne": 815,
      "hand": 816,
      "##urr": 817,
      "much": 818,
      "dat": 819,
      "art": 820,
      "both": 821,
      "great": 822,
      "ma": 823,
      "find": 824,
      "##..": 825,
      "##ether": 826,
      "sl": 827,
      "aut": 828,
      "each": 829,
      "##ollow": 830,
      "##ix": 831,
      "day": 832,
      "##ason": 833,
      "##==": 834,
      "##velop": 835,
      "war": 836,
      "val": 837,
      "##ants": 838,
      "ext": 839,
      "##ues": 840,
      "##gan": 841,
      "follow": 842,
      "during": 843,
      "num": 844,
      "##ting": 845,
      "##ather": 846,
      "exper": 847,
      "inf": 848,
      "gl": 849,
      "read": 850,
      "develop": 851,
      "dire": 852,
      "##way": 853,
      "ref": 854,
      "result": 855,
      "##ism": 856,
      "same": 857,
      "##ices": 858,
      "test": 859,
      "serv": 860,
      "partic": 861,
      "however": 862,
      "##ene": 863,
      "fil": 864,
      "##gg": 865,
      "##io": 866,
      "##ock": 867,
      "point": 868,
      "##ually": 869,
      "som": 870,
      "##ined": 871,
      "el": 872,
      "help": 873,
      "law": 874,
      "effect": 875,
      "##alth": 876,
      "18": 877,
      "group": 878,
      "##ince": 879,
      "child": 880,
      "case": 881,
      "##ins": 882,
      "life": 883,
      "##ized": 884,
      "mat": 885,
      "ca": 886,
      "##hip": 887,
      "##ider": 888,
      "##ness": 889,
      "red": 890,
      "still": 891,
      "loc": 892,
      "rev": 893,
      "bro": 894,
      "##day": 895,
      "three": 896,
      "start": 897,
      "##----": 898,
      "##eric": 899,
      "pati": 900,
      "last": 901,
      "person": 902,
      "dem": 903,
      "report": 904,
      "##ves": 905,
      "##ident": 906,
      "##lish": 907,
      "cle": 908,
      "##tern": 909,
      "##vern": 910,
      "data": 911,
      "lar": 912,
      "different": 913,
      "eng": 914,
      "inform": 915,
      "##let": 916,
      "fam": 917,
      "##ision": 918,
      "##ines": 919,
      "conf": 920,
      "pri": 921,
      "take": 922,
      "##ool": 923,
      "spec": 924,
      "##ric": 925,
      "say": 926,
      "##res": 927,
      "bus": 928,
      "12": 929,
      "process": 930,
      "##und": 931,
      "second": 932,
      "appro": 933,
      ".,": 934,
      "support": 935,
      "govern": 936,
      "##ull": 937,
      "av": 938,
      "##alk": 939,
      "var": 940,
      "don": 941,
      "real": 942,
      "##ner": 943,
      "against": 944,
      "##ale": 945,
      "lead": 946,
      "americ": 947,
      "##iel": 948,
      "control": 949,
      "##ank": 950,
      "another": 951,
      "##ically": 952,
      "incre": 953,
      "##ateg": 954,
      "11": 955,
      "##ets": 956,
      "ve": 957,
      "const": 958,
      "##ier": 959,
      "##ork": 960,
      "pur": 961,
      "commun": 962,
      "##ouse": 963,
      "mark": 964,
      "order": 965,
      "compan": 966,
      "iss": 967,
      "##ctions": 968,
      "care": 969,
      "ed": 970,
      "cir": 971,
      "##ages": 972,
      "wom": 973,
      "##read": 974,
      "poss": 975,
      "using": 976,
      "##ters": 977,
      "quest": 978,
      "##eng": 979,
      "199": 980,
      "old": 981,
      "public": 982,
      "##land": 983,
      "est": 984,
      "##aim": 985,
      "##uss": 986,
      "##man": 987,
      "must": 988,
      "##ists": 989,
      "##ives": 990,
      "since": 991,
      "##ms": 992,
      "without": 993,
      "##air": 994,
      "adv": 995,
      "##osed": 996,
      "##ute": 997,
      "health": 998,
      "dr": 999,
      "wee": 1000,
      "post": 1001,
      "power": 1002,
      "##ody": 1003,
      "ent": 1004,
      "hum": 1005,
      "tech": 1006,
      "open": 1007,
      "##ency": 1008,
      "cre": 1009,
      "bar": 1010,
      "prev": 1011,
      "##ense": 1012,
      "##ases": 1013,
      "##ash": 1014,
      "around": 1015,
      "##ying": 1016,
      "head": 1017,
      "##idence": 1018,
      "fun": 1019,
      "direct": 1020,
      "term": 1021,
      "met": 1022,
      "##ature": 1023,
      "stand": 1024,
      "del": 1025,
      "##ps": 1026,
      "going": 1027,
      "##red": 1028,
      "based": 1029,
      "expl": 1030,
      "##ross": 1031,
      "##iness": 1032,
      "present": 1033,
      "nor": 1034,
      "##ize": 1035,
      "far": 1036,
      "never": 1037,
      "gra": 1038,
      "di": 1039,
      "##ided": 1040,
      "level": 1041,
      "##ave": 1042,
      "oper": 1043,
      "leg": 1044,
      "dev": 1045,
      "run": 1046,
      "too": 1047,
      "home": 1048,
      "##erg": 1049,
      "##ected": 1050,
      "##ret": 1051,
      "prot": 1052,
      "school": 1053,
      "consider": 1054,
      "##ained": 1055,
      "pass": 1056,
      "contin": 1057,
      "15": 1058,
      "##ired": 1059,
      "aff": 1060,
      "##ici": 1061,
      "##ivers": 1062,
      "cap": 1063,
      "sk": 1064,
      "##ern": 1065,
      "turn": 1066,
      "##ruct": 1067,
      "let": 1068,
      "import": 1069,
      "##ified": 1070,
      "number": 1071,
      "cal": 1072,
      "sol": 1073,
      "plan": 1074,
      "place": 1075,
      "##els": 1076,
      "##ield": 1077,
      "ele": 1078,
      "##hing": 1079,
      "##cu": 1080,
      "##pr": 1081,
      "sw": 1082,
      "information": 1083,
      "elect": 1084,
      "states": 1085,
      "claim": 1086,
      "might": 1087,
      "techn": 1088,
      "##ittle": 1089,
      "##over": 1090,
      "##ital": 1091,
      "best": 1092,
      "##ences": 1093,
      "##con": 1094,
      "...": 1095,
      "##par": 1096,
      "##ll": 1097,
      "perform": 1098,
      "##nt": 1099,
      "##ural": 1100,
      "class": 1101,
      "little": 1102,
      "jud": 1103,
      "##ee": 1104,
      "ask": 1105,
      "defend": 1106,
      "ant": 1107,
      "##ob": 1108,
      "anal": 1109,
      "##ately": 1110,
      "few": 1111,
      "##til": 1112,
      "rest": 1113,
      "design": 1114,
      "prof": 1115,
      "air": 1116,
      "##inal": 1117,
      "interest": 1118,
      "##ury": 1119,
      "proble": 1120,
      "##ively": 1121,
      "happ": 1122,
      "small": 1123,
      "team": 1124,
      "month": 1125,
      "record": 1126,
      "mot": 1127,
      "##atch": 1128,
      "cell": 1129,
      "sever": 1130,
      "hist": 1131,
      "##ample": 1132,
      "beh": 1133,
      "##gram": 1134,
      "##akes": 1135,
      "adm": 1136,
      "curr": 1137,
      "##self": 1138,
      "four": 1139,
      "desc": 1140,
      "##ling": 1141,
      "##ax": 1142,
      "##ah": 1143,
      "book": 1144,
      "really": 1145,
      "vis": 1146,
      "allow": 1147,
      "meth": 1148,
      "fur": 1149,
      "##ploy": 1150,
      "##ren": 1151,
      "put": 1152,
      "seem": 1153,
      "ste": 1154,
      "rece": 1155,
      "bre": 1156,
      "##az": 1157,
      "government": 1158,
      "invest": 1159,
      "##ption": 1160,
      "##ething": 1161,
      "##ety": 1162,
      "mus": 1163,
      "**": 1164,
      "##iting": 1165,
      "##vers": 1166,
      "##ven": 1167,
      "##med": 1168,
      "intern": 1169,
      "##up": 1170,
      "stat": 1171,
      "within": 1172,
      "belie": 1173,
      "something": 1174,
      "city": 1175,
      "offic": 1176,
      "less": 1177,
      "bra": 1178,
      "occ": 1179,
      "##sp": 1180,
      "dri": 1181,
      "--": 1182,
      "##iff": 1183,
      "program": 1184,
      "chr": 1185,
      "##ts": 1186,
      "##ways": 1187,
      "come": 1188,
      "house": 1189,
      "giv": 1190,
      "light": 1191,
      "proper": 1192,
      "##ology": 1193,
      "patients": 1194,
      "##ton": 1195,
      "accord": 1196,
      "che": 1197,
      "##ably": 1198,
      "##ten": 1199,
      "##orn": 1200,
      "##ality": 1201,
      "##bers": 1202,
      "##ination": 1203,
      "##ames": 1204,
      "cert": 1205,
      "13": 1206,
      "##ides": 1207,
      "auth": 1208,
      "study": 1209,
      "pop": 1210,
      "har": 1211,
      "##thing": 1212,
      "including": 1213,
      "rele": 1214,
      "things": 1215,
      "opp": 1216,
      "why": 1217,
      "water": 1218,
      "sou": 1219,
      "business": 1220,
      "ra": 1221,
      "eas": 1222,
      "##ised": 1223,
      "lim": 1224,
      "198": 1225,
      "##ends": 1226,
      "##ior": 1227,
      "##ral": 1228,
      "##bs": 1229,
      "##bo": 1230,
      "##anc": 1231,
      "##ission": 1232,
      "hard": 1233,
      "##ark": 1234,
      "experi": 1235,
      "bas": 1236,
      "##ived": 1237,
      "treat": 1238,
      "000": 1239,
      "fig": 1240,
      "##ger": 1241,
      "##[@": 1242,
      "##ged": 1243,
      "further": 1244,
      "activ": 1245,
      "left": 1246,
      "##ured": 1247,
      "##rict": 1248,
      "addition": 1249,
      "whether": 1250,
      "next": 1251,
      "organ": 1252,
      "sing": 1253,
      "method": 1254,
      "##ug": 1255,
      "big": 1256,
      "non": 1257,
      "dra": 1258,
      "pay": 1259,
      "##ration": 1260,
      "equ": 1261,
      "##ulation": 1262,
      "having": 1263,
      "build": 1264,
      "##oss": 1265,
      "men": 1266,
      "mill": 1267,
      "vi": 1268,
      "##ode": 1269,
      "##earch": 1270,
      "##ability": 1271,
      "##ization": 1272,
      "##ew": 1273,
      "##less": 1274,
      "research": 1275,
      "exc": 1276,
      "feel": 1277,
      "ide": 1278,
      "categ": 1279,
      "evidence": 1280,
      "14": 1281,
      "hy": 1282,
      "##mm": 1283,
      "##ining": 1284,
      "arg": 1285,
      "top": 1286,
      "##ds": 1287,
      "##soci": 1288,
      "clear": 1289,
      "cond": 1290,
      "mean": 1291,
      "mor": 1292,
      "chang": 1293,
      "game": 1294,
      "16": 1295,
      "##pped": 1296,
      "list": 1297,
      "##ead": 1298,
      "##stand": 1299,
      "free": 1300,
      "better": 1301,
      "mr": 1302,
      "##ator": 1303,
      "##sc": 1304,
      "ann": 1305,
      "refer": 1306,
      "fre": 1307,
      "coun": 1308,
      "appear": 1309,
      "press": 1310,
      "conn": 1311,
      "##ove": 1312,
      "##ection": 1313,
      "associ": 1314,
      "lot": 1315,
      "according": 1316,
      "17": 1317,
      "got": 1318,
      "specific": 1319,
      "##ains": 1320,
      "ident": 1321,
      "type": 1322,
      "##br": 1323,
      "fri": 1324,
      "prop": 1325,
      "mil": 1326,
      "important": 1327,
      "keep": 1328,
      "week": 1329,
      "called": 1330,
      "united": 1331,
      "family": 1332,
      "##oot": 1333,
      "employ": 1334,
      "example": 1335,
      "cost": 1336,
      "applic": 1337,
      "later": 1338,
      "view": 1339,
      "human": 1340,
      "prom": 1341,
      "determ": 1342,
      "until": 1343,
      "project": 1344,
      "##be": 1345,
      "30": 1346,
      "gre": 1347,
      "##get": 1348,
      "polit": 1349,
      "##ump": 1350,
      "company": 1351,
      "general": 1352,
      "reason": 1353,
      "maj": 1354,
      "##ivid": 1355,
      "fail": 1356,
      "always": 1357,
      "ris": 1358,
      "##sel": 1359,
      "charact": 1360,
      "##raph": 1361,
      "##ime": 1362,
      "particular": 1363,
      "sit": 1364,
      "##used": 1365,
      "##ither": 1366,
      "return": 1367,
      "side": 1368,
      "ir": 1369,
      "question": 1370,
      "lear": 1371,
      "univers": 1372,
      "##ane": 1373,
      "##wh": 1374,
      "port": 1375,
      "near": 1376,
      "##ional": 1377,
      "children": 1378,
      "once": 1379,
      "product": 1380,
      "days": 1381,
      "##ared": 1382,
      "##ended": 1383,
      "net": 1384,
      "##atic": 1385,
      "##lex": 1386,
      "##cle": 1387,
      "known": 1388,
      "change": 1389,
      "pot": 1390,
      "away": 1391,
      "women": 1392,
      "##augh": 1393,
      "impro": 1394,
      "times": 1395,
      "move": 1396,
      "##uck": 1397,
      "##na": 1398,
      "##itions": 1399,
      "national": 1400,
      "vol": 1401,
      "several": 1402,
      "sal": 1403,
      "signific": 1404,
      "mult": 1405,
      "##por": 1406,
      "er": 1407,
      "##hn": 1408,
      "face": 1409,
      "line": 1410,
      "##ential": 1411,
      "simp": 1412,
      "grow": 1413,
      "pract": 1414,
      "review": 1415,
      "land": 1416,
      "##itch": 1417,
      "category": 1418,
      "major": 1419,
      "tem": 1420,
      "pa": 1421,
      "##itive": 1422,
      "often": 1423,
      "##aring": 1424,
      "pet": 1425,
      "##uro": 1426,
      "trial": 1427,
      "redu": 1428,
      "2d": 1429,
      "low": 1430,
      "##ony": 1431,
      "large": 1432,
      "told": 1433,
      "ey": 1434,
      "win": 1435,
      "mater": 1436,
      "##iqu": 1437,
      "invol": 1438,
      "##son": 1439,
      "##cent": 1440,
      "##oney": 1441,
      "##ium": 1442,
      "##thers": 1443,
      "social": 1444,
      "individ": 1445,
      "et": 1446,
      "sat": 1447,
      "american": 1448,
      "##gress": 1449,
      "among": 1450,
      "meas": 1451,
      "certain": 1452,
      "sent": 1453,
      "##iter": 1454,
      "bi": 1455,
      "president": 1456,
      "stre": 1457,
      "author": 1458,
      "service": 1459,
      "given": 1460,
      "hold": 1461,
      "following": 1462,
      "##line": 1463,
      "mag": 1464,
      "upon": 1465,
      "##ov": 1466,
      "##ances": 1467,
      "colle": 1468,
      "making": 1469,
      "##ina": 1470,
      "least": 1471,
      "sci": 1472,
      "object": 1473,
      "ple": 1474,
      "25": 1475,
      "##ned": 1476,
      "##ott": 1477,
      "##ope": 1478,
      "came": 1479,
      "camp": 1480,
      "understand": 1481,
      "youn": 1482,
      "tell": 1483,
      "short": 1484,
      "give": 1485,
      "full": 1486,
      "lik": 1487,
      "thought": 1488,
      "##att": 1489,
      "##__": 1490,
      "able": 1491,
      "black": 1492,
      "##gin": 1493,
      "says": 1494,
      "night": 1495,
      "lab": 1496,
      "##ember": 1497,
      "##erv": 1498,
      "individual": 1499,
      "conv": 1500,
      "##ued": 1501,
      "ill": 1502,
      "##ccess": 1503,
      "hal": 1504,
      "super": 1505,
      "john": 1506,
      "thir": 1507,
      "##ec": 1508,
      "?\"": 1509,
      "area": 1510,
      "##====": 1511,
      "##conom": 1512,
      "body": 1513,
      "repres": 1514,
      "kind": 1515,
      "phys": 1516,
      "avail": 1517,
      "country": 1518,
      "significant": 1519,
      "hour": 1520,
      "market": 1521,
      "love": 1522,
      "wa": 1523,
      "197": 1524,
      "mid": 1525,
      "##ought": 1526,
      "##ley": 1527,
      "##work": 1528,
      "##ars": 1529,
      "possible": 1530,
      "##ards": 1531,
      "##ister": 1532,
      "past": 1533,
      "yet": 1534,
      "provide": 1535,
      "common": 1536,
      "##li": 1537,
      "##ggest": 1538,
      "cho": 1539,
      "##ograph": 1540,
      "along": 1541,
      "##though": 1542,
      "suggest": 1543,
      "orig": 1544,
      "district": 1545,
      "sure": 1546,
      "took": 1547,
      "early": 1548,
      "course": 1549,
      "material": 1550,
      "although": 1551,
      "enter": 1552,
      "##ending": 1553,
      "##ilar": 1554,
      "##ats": 1555,
      "ap": 1556,
      "phot": 1557,
      "##rem": 1558,
      "name": 1559,
      "vari": 1560,
      "offer": 1561,
      "econom": 1562,
      "local": 1563,
      "bill": 1564,
      "##by": 1565,
      "due": 1566,
      "white": 1567,
      "results": 1568,
      "enough": 1569,
      "##ney": 1570,
      "main": 1571,
      "##co": 1572,
      "##iving": 1573,
      "prob": 1574,
      "##aps": 1575,
      "##ready": 1576,
      "rad": 1577,
      "##ison": 1578,
      "bene": 1579,
      "##aken": 1580,
      "meet": 1581,
      "den": 1582,
      "already": 1583,
      "god": 1584,
      "describ": 1585,
      "thing": 1586,
      "means": 1587,
      "success": 1588,
      "##duc": 1589,
      "##itted": 1590,
      "##icle": 1591,
      "fund": 1592,
      "money": 1593,
      "typ": 1594,
      "talk": 1595,
      "##aintiff": 1596,
      "room": 1597,
      "cover": 1598,
      "interv": 1599,
      "##aining": 1600,
      "##arch": 1601,
      "express": 1602,
      "##yl": 1603,
      "fed": 1604,
      "wind": 1605,
      "plaintiff": 1606,
      "cust": 1607,
      "action": 1608,
      "##com": 1609,
      "field": 1610,
      "opt": 1611,
      "development": 1612,
      "##ered": 1613,
      "sour": 1614,
      "polic": 1615,
      "character": 1616,
      "##sh": 1617,
      "five": 1618,
      "death": 1619,
      "history": 1620,
      "analys": 1621,
      "party": 1622,
      "access": 1623,
      "others": 1624,
      "##ware": 1625,
      "##ule": 1626,
      "peri": 1627,
      "problem": 1628,
      "university": 1629,
      "similar": 1630,
      "went": 1631,
      "##ened": 1632,
      "mind": 1633,
      "summ": 1634,
      "##sw": 1635,
      "subst": 1636,
      "become": 1637,
      "##ental": 1638,
      "imm": 1639,
      "ge": 1640,
      "working": 1641,
      "##une": 1642,
      "ter": 1643,
      "thus": 1644,
      "function": 1645,
      "infl": 1646,
      "##mber": 1647,
      "##ror": 1648,
      "available": 1649,
      "##ush": 1650,
      "period": 1651,
      "discuss": 1652,
      "##ength": 1653,
      "##not": 1654,
      "food": 1655,
      "21": 1656,
      "above": 1657,
      "mom": 1658,
      "stor": 1659,
      "arr": 1660,
      "suff": 1661,
      "event": 1662,
      "##ering": 1663,
      "tog": 1664,
      "##lement": 1665,
      "arm": 1666,
      "tot": 1667,
      "south": 1668,
      "diff": 1669,
      "special": 1670,
      "##ann": 1671,
      "##lished": 1672,
      "account": 1673,
      "bit": 1674,
      "vir": 1675,
      "young": 1676,
      "##eral": 1677,
      "dont": 1678,
      "rather": 1679,
      "subject": 1680,
      "position": 1681,
      "comb": 1682,
      "exam": 1683,
      "together": 1684,
      "es": 1685,
      "either": 1686,
      "ther": 1687,
      "priv": 1688,
      "done": 1689,
      "story": 1690,
      "treatment": 1691,
      "tax": 1692,
      "##ape": 1693,
      "experience": 1694,
      "saf": 1695,
      "##utes": 1696,
      "div": 1697,
      "ll": 1698,
      "##oid": 1699,
      "members": 1700,
      "miss": 1701,
      "north": 1702,
      "##ron": 1703,
      "struct": 1704,
      "represent": 1705,
      "obs": 1706,
      "##urs": 1707,
      "24": 1708,
      "issue": 1709,
      "six": 1710,
      "ep": 1711,
      "defendant": 1712,
      "##ler": 1713,
      "##ges": 1714,
      "fut": 1715,
      "agree": 1716,
      "##ries": 1717,
      "deb": 1718,
      "##rop": 1719,
      "single": 1720,
      "viol": 1721,
      "##itor": 1722,
      "##ogn": 1723,
      "age": 1724,
      "asked": 1725,
      "env": 1726,
      "estab": 1727,
      "christ": 1728,
      "current": 1729,
      "foc": 1730,
      "dam": 1731,
      "##etic": 1732,
      "step": 1733,
      "educ": 1734,
      "across": 1735,
      "dou": 1736,
      "approach": 1737,
      "##side": 1738,
      "##duct": 1739,
      "percent": 1740,
      "enc": 1741,
      "cult": 1742,
      "benef": 1743,
      "##ify": 1744,
      "ang": 1745,
      "relations": 1746,
      "exist": 1747,
      "##ising": 1748,
      "seen": 1749,
      "neg": 1750,
      "lay": 1751,
      "alm": 1752,
      "abs": 1753,
      "##acy": 1754,
      "##lus": 1755,
      "cy": 1756,
      "reach": 1757,
      "mer": 1758,
      "22": 1759,
      "community": 1760,
      "season": 1761,
      "value": 1762,
      "indic": 1763,
      "##eal": 1764,
      "##ones": 1765,
      "fac": 1766,
      "trad": 1767,
      "sex": 1768,
      "amount": 1769,
      "100": 1770,
      "init": 1771,
      "nothing": 1772,
      "profess": 1773,
      "link": 1774,
      "sens": 1775,
      "today": 1776,
      "nat": 1777,
      "police": 1778,
      "##ological": 1779,
      "##iously": 1780,
      "##ote": 1781,
      "50": 1782,
      "cases": 1783,
      "##ially": 1784,
      "model": 1785,
      "services": 1786,
      "table": 1787,
      "section": 1788,
      "risk": 1789,
      "mic": 1790,
      "corre": 1791,
      "self": 1792,
      "investig": 1793,
      "##ted": 1794,
      "##--------": 1795,
      "months": 1796,
      "strong": 1797,
      "##den": 1798,
      "sil": 1799,
      "watch": 1800,
      "depart": 1801,
      "custom": 1802,
      "necess": 1803,
      "tar": 1804,
      "##cially": 1805,
      "cut": 1806,
      "respect": 1807,
      "##ient": 1808,
      "creat": 1809,
      "euro": 1810,
      "##face": 1811,
      "deal": 1812,
      "therefore": 1813,
      "toward": 1814,
      "##pping": 1815,
      "##empt": 1816,
      "actually": 1817,
      "news": 1818,
      "##ortun": 1819,
      "##cer": 1820,
      ".)": 1821,
      "##enn": 1822,
      "related": 1823,
      "##orts": 1824,
      "pap": 1825,
      "prior": 1826,
      "kill": 1827,
      "particip": 1828,
      "require": 1829,
      "looking": 1830,
      "##uation": 1831,
      "dise": 1832,
      "prim": 1833,
      "million": 1834,
      "##osp": 1835,
      "doing": 1836,
      "##aw": 1837,
      "indust": 1838,
      "energ": 1839,
      "##ik": 1840,
      "purp": 1841,
      "half": 1842,
      "fall": 1843,
      "##iron": 1844,
      "future": 1845,
      "##of": 1846,
      "##unch": 1847,
      "walk": 1848,
      "answ": 1849,
      "vers": 1850,
      "held": 1851,
      "key": 1852,
      "heart": 1853,
      "##ibility": 1854,
      "##ows": 1855,
      "##aster": 1856,
      "tre": 1857,
      "regard": 1858,
      "vide": 1859,
      "pred": 1860,
      "ju": 1861,
      "matter": 1862,
      "analysis": 1863,
      "mass": 1864,
      "sn": 1865,
      "almost": 1866,
      "##atory": 1867,
      "norm": 1868,
      "scre": 1869,
      "##icult": 1870,
      "sound": 1871,
      "##oph": 1872,
      "check": 1873,
      "attack": 1874,
      "foot": 1875,
      "admin": 1876,
      "##ids": 1877,
      "ground": 1878,
      "dom": 1879,
      "respons": 1880,
      "environ": 1881,
      "##put": 1882,
      "fire": 1883,
      "##ief": 1884,
      "film": 1885,
      "##iction": 1886,
      "front": 1887,
      "##ensive": 1888,
      "ce": 1889,
      "repl": 1890,
      "taken": 1891,
      "##ished": 1892,
      "##ification": 1893,
      "23": 1894,
      "##rug": 1895,
      "space": 1896,
      "york": 1897,
      "include": 1898,
      "chall": 1899,
      "conduct": 1900,
      "difficult": 1901,
      "inj": 1902,
      "ps": 1903,
      "plac": 1904,
      "address": 1905,
      "##ams": 1906,
      "required": 1907,
      "##urity": 1908,
      "bank": 1909,
      "##ef": 1910,
      "third": 1911,
      "##imes": 1912,
      "196": 1913,
      "fel": 1914,
      "makes": 1915,
      "alle": 1916,
      "crit": 1917,
      "##selves": 1918,
      "decision": 1919,
      "##ring": 1920,
      "manage": 1921,
      "00": 1922,
      "himself": 1923,
      "bur": 1924,
      "##ex": 1925,
      "##ried": 1926,
      "lang": 1927,
      "studies": 1928,
      "##ceed": 1929,
      "##mb": 1930,
      "##lo": 1931,
      "cra": 1932,
      "didn": 1933,
      "path": 1934,
      "believe": 1935,
      "office": 1936,
      "board": 1937,
      "whole": 1938,
      "##esh": 1939,
      "bir": 1940,
      "##ening": 1941,
      "##action": 1942,
      "##asing": 1943,
      "stra": 1944,
      "complet": 1945,
      "##ators": 1946,
      "sen": 1947,
      "##xim": 1948,
      "cannot": 1949,
      "political": 1950,
      "##ots": 1951,
      "rul": 1952,
      "comput": 1953,
      "series": 1954,
      "live": 1955,
      "vict": 1956,
      "bad": 1957,
      "energy": 1958,
      "fav": 1959,
      "anything": 1960,
      "clin": 1961,
      "##hib": 1962,
      "students": 1963,
      "instead": 1964,
      "provided": 1965,
      "image": 1966,
      "docu": 1967,
      "higher": 1968,
      "prin": 1969,
      "cause": 1970,
      "likely": 1971,
      "##for": 1972,
      "wall": 1973,
      "##irl": 1974,
      "contract": 1975,
      "reported": 1976,
      "compet": 1977,
      "lat": 1978,
      "entire": 1979,
      "##eter": 1980,
      "##iding": 1981,
      "circ": 1982,
      "##20": 1983,
      "##pect": 1984,
      "quick": 1985,
      "rate": 1986,
      "europe": 1987,
      "##sequ": 1988,
      "blood": 1989,
      "various": 1990,
      "##ples": 1991,
      "40": 1992,
      "lower": 1993,
      "teach": 1994,
      "code": 1995,
      "##ians": 1996,
      "official": 1997,
      "##).": 1998,
      "drug": 1999,
      "former": 2000,
      "mess": 2001,
      "ho": 2002,
      "##omm": 2003,
      "detail": 2004,
      "##ung": 2005,
      "saw": 2006,
      "feat": 2007,
      "media": 2008,
      "true": 2009,
      "cross": 2010,
      "getting": 2011,
      "ii": 2012,
      "##ches": 2013,
      "systems": 2014,
      "medical": 2015,
      "cur": 2016,
      "personal": 2017,
      "environment": 2018,
      "##ruction": 2019,
      "road": 2020,
      "yes": 2021,
      "manag": 2022,
      "soci": 2023,
      "policy": 2024,
      "search": 2025,
      "total": 2026,
      "##go": 2027,
      "park": 2028,
      "langu": 2029,
      "started": 2030,
      "anim": 2031,
      "\\[": 2032,
      "final": 2033,
      "##ique": 2034,
      "##chan": 2035,
      "west": 2036,
      "role": 2037,
      "##onse": 2038,
      "##aff": 2039,
      "begin": 2040,
      "##olution": 2041,
      "##ox": 2042,
      "site": 2043,
      "pack": 2044,
      "jan": 2045,
      "device": 2046,
      "##gment": 2047,
      "##port": 2048,
      "##yn": 2049,
      "close": 2050,
      "##cl": 2051,
      "mal": 2052,
      "##ored": 2053,
      "quality": 2054,
      "attempt": 2055,
      "relationship": 2056,
      "##aut": 2057,
      "application": 2058,
      "separ": 2059,
      "##ming": 2060,
      "ur": 2061,
      "##onst": 2062,
      "hot": 2063,
      "cop": 2064,
      "security": 2065,
      "soft": 2066,
      "cells": 2067,
      "job": 2068,
      "changes": 2069,
      "accept": 2070,
      "center": 2071,
      "28": 2072,
      "music": 2073,
      "federal": 2074,
      "taking": 2075,
      "##pecially": 2076,
      "block": 2077,
      "emb": 2078,
      "##ilt": 2079,
      "##ledge": 2080,
      "cam": 2081,
      "##gn": 2082,
      "response": 2083,
      "coll": 2084,
      "idea": 2085,
      "motion": 2086,
      "someone": 2087,
      "try": 2088,
      "words": 2089,
      "##rodu": 2090,
      "behind": 2091,
      "concern": 2092,
      "26": 2093,
      "constit": 2094,
      "maint": 2095,
      "germ": 2096,
      "received": 2097,
      "mother": 2098,
      "girl": 2099,
      "march": 2100,
      "cred": 2101,
      "everything": 2102,
      "##uff": 2103,
      "international": 2104,
      "especially": 2105,
      "building": 2106,
      "select": 2107,
      "became": 2108,
      "##fully": 2109,
      "wanted": 2110,
      "micro": 2111,
      "disp": 2112,
      "bring": 2113,
      "squ": 2114,
      "tit": 2115,
      "##ask": 2116,
      "associated": 2117,
      "force": 2118,
      "card": 2119,
      "##oint": 2120,
      "hosp": 2121,
      "recogn": 2122,
      "##ma": 2123,
      "##ication": 2124,
      "contact": 2125,
      "began": 2126,
      "rights": 2127,
      "##ama": 2128,
      "##\\]": 2129,
      "issues": 2130,
      "##imate": 2131,
      "frequ": 2132,
      "##amed": 2133,
      "property": 2134,
      "potential": 2135,
      "itself": 2136,
      "father": 2137,
      "administ": 2138,
      "arch": 2139,
      "##tt": 2140,
      "groups": 2141,
      "network": 2142,
      "##ival": 2143,
      "secret": 2144,
      "county": 2145,
      "increase": 2146,
      "create": 2147,
      "town": 2148,
      "exec": 2149,
      "hom": 2150,
      "performance": 2151,
      "argu": 2152,
      "else": 2153,
      "##lete": 2154,
      "ach": 2155,
      "##app": 2156,
      "friends": 2157,
      "##istic": 2158,
      "jour": 2159,
      "##ribut": 2160,
      "civ": 2161,
      "bal": 2162,
      "request": 2163,
      "##cing": 2164,
      "clos": 2165,
      "behav": 2166,
      "pan": 2167,
      "standard": 2168,
      "appell": 2169,
      "stay": 2170,
      "##ench": 2171,
      "added": 2172,
      "hours": 2173,
      "cit": 2174,
      "##ctor": 2175,
      "mechan": 2176,
      "27": 2177,
      "brit": 2178,
      "##cip": 2179,
      "break": 2180,
      "probably": 2181,
      "range": 2182,
      "chur": 2183,
      "rich": 2184,
      "needs": 2185,
      "##itting": 2186,
      "phil": 2187,
      "##ball": 2188,
      ".'": 2189,
      "]\\]": 2190,
      "king": 2191,
      "eyes": 2192,
      "ver": 2193,
      "##icient": 2194,
      "consum": 2195,
      "pick": 2196,
      "stop": 2197,
      "trying": 2198,
      "stri": 2199,
      "displ": 2200,
      "##medi": 2201,
      "video": 2202,
      "quite": 2203,
      "ess": 2204,
      "####": 2205,
      "##ands": 2206,
      "##oke": 2207,
      "##ych": 2208,
      "##cul": 2209,
      "knew": 2210,
      "##cy": 2211,
      "improve": 2212,
      "surface": 2213,
      "deg": 2214,
      "##ift": 2215,
      "needed": 2216,
      "engine": 2217,
      "hope": 2218,
      "hor": 2219,
      "source": 2220,
      "disease": 2221,
      "san": 2222,
      "influ": 2223,
      "aud": 2224,
      "outside": 2225,
      "department": 2226,
      "ul": 2227,
      "##oses": 2228,
      "mis": 2229,
      "base": 2230,
      "sense": 2231,
      "woman": 2232,
      "soon": 2233,
      "##to": 2234,
      "mount": 2235,
      "problems": 2236,
      "3d": 2237,
      "living": 2238,
      "member": 2239,
      "dig": 2240,
      "sun": 2241,
      "tool": 2242,
      "pret": 2243,
      "aug": 2244,
      "moment": 2245,
      "star": 2246,
      "vo": 2247,
      "##the": 2248,
      "compl": 2249,
      "russ": 2250,
      "dest": 2251,
      "milit": 2252,
      "deliver": 2253,
      "obt": 2254,
      "imag": 2255,
      "simply": 2256,
      "except": 2257,
      ");": 2258,
      "##ises": 2259,
      "games": 2260,
      "word": 2261,
      "size": 2262,
      "appar": 2263,
      "respond": 2264,
      "pie": 2265,
      "assess": 2266,
      "##osition": 2267,
      "recent": 2268,
      "focus": 2269,
      "opportun": 2270,
      "oct": 2271,
      "comes": 2272,
      "##ires": 2273,
      "glob": 2274,
      "friend": 2275,
      "instit": 2276,
      "aust": 2277,
      "loss": 2278,
      "rule": 2279,
      "dav": 2280,
      "heav": 2281,
      "pain": 2282,
      "green": 2283,
      "desp": 2284,
      "led": 2285,
      "effects": 2286,
      "considered": 2287,
      "29": 2288,
      "##endent": 2289,
      "democ": 2290,
      "hon": 2291,
      "sup": 2292,
      "seems": 2293,
      "##agn": 2294,
      "discover": 2295,
      "tele": 2296,
      "below": 2297,
      "included": 2298,
      "track": 2299,
      "circu": 2300,
      "questions": 2301,
      "felt": 2302,
      "##ender": 2303,
      "described": 2304,
      "##dle": 2305,
      "mach": 2306,
      "trump": 2307,
      "##af": 2308,
      "\\[[@": 2309,
      "##izing": 2310,
      "content": 2311,
      "terms": 2312,
      "finally": 2313,
      "themselves": 2314,
      "sam": 2315,
      "##he": 2316,
      "management": 2317,
      "text": 2318,
      "31": 2319,
      "increased": 2320,
      "strateg": 2321,
      "##ners": 2322,
      "perf": 2323,
      "achie": 2324,
      "fight": 2325,
      "##ees": 2326,
      "somet": 2327,
      "activity": 2328,
      "##rate": 2329,
      "adj": 2330,
      "appl": 2331,
      "pal": 2332,
      "share": 2333,
      "education": 2334,
      "##ude": 2335,
      "collect": 2336,
      "aw": 2337,
      "sett": 2338,
      "[@": 2339,
      "language": 2340,
      "##bert": 2341,
      "impact": 2342,
      "looked": 2343,
      "patient": 2344,
      "##ilities": 2345,
      "##ouch": 2346,
      "award": 2347,
      "page": 2348,
      "host": 2349,
      "multip": 2350,
      "technology": 2351,
      "rob": 2352,
      "veh": 2353,
      "prote": 2354,
      "late": 2355,
      "sept": 2356,
      "susp": 2357,
      "knowledge": 2358,
      "won": 2359,
      "capt": 2360,
      "##su": 2361,
      "lost": 2362,
      "##amm": 2363,
      "conditions": 2364,
      "deep": 2365,
      "##ference": 2366,
      "lack": 2367,
      "##ript": 2368,
      "##ese": 2369,
      "points": 2370,
      "mich": 2371,
      "rock": 2372,
      "appeal": 2373,
      "coming": 2374,
      "hol": 2375,
      "street": 2376,
      "german": 2377,
      "##fact": 2378,
      "user": 2379,
      "shown": 2380,
      "necessary": 2381,
      "levels": 2382,
      "##ites": 2383,
      "##ume": 2384,
      "church": 2385,
      "psych": 2386,
      "##ension": 2387,
      "involved": 2388,
      "assist": 2389,
      "obser": 2390,
      "apr": 2391,
      "claims": 2392,
      "##ai": 2393,
      "pict": 2394,
      "##uary": 2395,
      "training": 2396,
      "##haps": 2397,
      "wond": 2398,
      "##yle": 2399,
      "nature": 2400,
      "original": 2401,
      "longer": 2402,
      "##itten": 2403,
      "trust": 2404,
      "##oud": 2405,
      "broad": 2406,
      "##osis": 2407,
      "fair": 2408,
      "door": 2409,
      "hands": 2410,
      "sle": 2411,
      "note": 2412,
      "color": 2413,
      "easy": 2414,
      "##pper": 2415,
      "weight": 2416,
      "expect": 2417,
      "turned": 2418,
      "private": 2419,
      "aver": 2420,
      "ten": 2421,
      "##umb": 2422,
      "ago": 2423,
      "##50": 2424,
      "paper": 2425,
      "june": 2426,
      "indep": 2427,
      "target": 2428,
      "##ables": 2429,
      "##inary": 2430,
      "enj": 2431,
      "perhaps": 2432,
      "remember": 2433,
      "gold": 2434,
      "##gen": 2435,
      "dead": 2436,
      "web": 2437,
      "perm": 2438,
      "everyone": 2439,
      "online": 2440,
      "sold": 2441,
      "bed": 2442,
      "natural": 2443,
      "hu": 2444,
      "bri": 2445,
      "ball": 2446,
      "dece": 2447,
      "chap": 2448,
      "complex": 2449,
      "forward": 2450,
      "minutes": 2451,
      "##sec": 2452,
      "signal": 2453,
      "fore": 2454,
      "inside": 2455,
      "leave": 2456,
      "gave": 2457,
      "judge": 2458,
      "introdu": 2459,
      "eval": 2460,
      "judgment": 2461,
      "dark": 2462,
      "production": 2463,
      "sometimes": 2464,
      "connect": 2465,
      "shows": 2466,
      "flow": 2467,
      "tour": 2468,
      "practice": 2469,
      "son": 2470,
      "civil": 2471,
      "areas": 2472,
      "speak": 2473,
      "##ging": 2474,
      "protect": 2475,
      "demonst": 2476,
      "##**": 2477,
      "##ili": 2478,
      "additional": 2479,
      "fem": 2480,
      "article": 2481,
      "flo": 2482,
      "##aign": 2483,
      "##ze": 2484,
      "commission": 2485,
      "decl": 2486,
      "opin": 2487,
      "##ression": 2488,
      "simple": 2489,
      "##asons": 2490,
      "resour": 2491,
      "##ops": 2492,
      "thats": 2493,
      "hospital": 2494,
      "oil": 2495,
      "grant": 2496,
      "weeks": 2497,
      "figure": 2498,
      "finan": 2499,
      "shall": 2500,
      "products": 2501,
      "##uth": 2502,
      "inte": 2503,
      "##ym": 2504,
      "central": 2505,
      "campaign": 2506,
      "particularly": 2507,
      "speed": 2508,
      "works": 2509,
      "194": 2510,
      "##elling": 2511,
      "provides": 2512,
      "lu": 2513,
      "immedi": 2514,
      "##rote": 2515,
      "physical": 2516,
      "dre": 2517,
      "events": 2518,
      "##ips": 2519,
      "##ino": 2520,
      "##bit": 2521,
      "pressure": 2522,
      "pen": 2523,
      "travel": 2524,
      "proced": 2525,
      "becom": 2526,
      "poly": 2527,
      "prepar": 2528,
      "population": 2529,
      "##ament": 2530,
      "round": 2531,
      "##eness": 2532,
      "july": 2533,
      "legal": 2534,
      "##use": 2535,
      "companies": 2536,
      "##lying": 2537,
      "defin": 2538,
      "compared": 2539,
      "##enced": 2540,
      "april": 2541,
      "prevent": 2542,
      "##uses": 2543,
      "60": 2544,
      "##gest": 2545,
      "webs": 2546,
      "gun": 2547,
      "fill": 2548,
      "date": 2549,
      "contr": 2550,
      "##ories": 2551,
      "##arily": 2552,
      "grand": 2553,
      "measure": 2554,
      "industry": 2555,
      "ult": 2556,
      "##oms": 2557,
      "earl": 2558,
      "announ": 2559,
      "limited": 2560,
      "price": 2561,
      "consist": 2562,
      "cancer": 2563,
      "threat": 2564,
      "##book": 2565,
      "arri": 2566,
      "recomm": 2567,
      "##nal": 2568,
      "mur": 2569,
      "##ublic": 2570,
      "oh": 2571,
      "running": 2572,
      "usually": 2573,
      "##10": 2574,
      "ban": 2575,
      "##ously": 2576,
      "circuit": 2577,
      "temper": 2578,
      "gas": 2579,
      "military": 2580,
      "regul": 2581,
      "favor": 2582,
      "##back": 2583,
      "vot": 2584,
      "heard": 2585,
      "##ague": 2586,
      "wrong": 2587,
      "##anced": 2588,
      "despite": 2589,
      "america": 2590,
      "generally": 2591,
      "2012": 2592,
      "multiple": 2593,
      "cry": 2594,
      "january": 2595,
      "##vant": 2596,
      "compon": 2597,
      "item": 2598,
      "relig": 2599,
      "players": 2600,
      "beaut": 2601,
      "enjoy": 2602,
      "##ivity": 2603,
      "extra": 2604,
      "created": 2605,
      "condition": 2606,
      "##eed": 2607,
      "reve": 2608,
      "continue": 2609,
      "growth": 2610,
      "brought": 2611,
      "statement": 2612,
      "staff": 2613,
      "flu": 2614,
      "##atively": 2615,
      "august": 2616,
      "spir": 2617,
      "canad": 2618,
      "##where": 2619,
      "visit": 2620,
      "society": 2621,
      "cand": 2622,
      "hit": 2623,
      "written": 2624,
      "##oura": 2625,
      "##asc": 2626,
      "poor": 2627,
      "college": 2628,
      "republic": 2629,
      "##enty": 2630,
      "##ana": 2631,
      "club": 2632,
      "fell": 2633,
      "##come": 2634,
      "clinical": 2635,
      "structure": 2636,
      "##isions": 2637,
      "integr": 2638,
      "ways": 2639,
      "##eless": 2640,
      "features": 2641,
      "liter": 2642,
      "ful": 2643,
      "fix": 2644,
      "batt": 2645,
      "resist": 2646,
      "tradition": 2647,
      "2014": 2648,
      "ability": 2649,
      "interview": 2650,
      "fear": 2651,
      "grad": 2652,
      "anyone": 2653,
      "##hood": 2654,
      "release": 2655,
      "complete": 2656,
      "2013": 2657,
      "factors": 2658,
      "economic": 2659,
      "surv": 2660,
      "2016": 2661,
      "document": 2662,
      "draw": 2663,
      "wood": 2664,
      "##nes": 2665,
      "##ills": 2666,
      "##idge": 2667,
      "progress": 2668,
      "##ober": 2669,
      "mob": 2670,
      "pattern": 2671,
      "35": 2672,
      "earth": 2673,
      "ord": 2674,
      "purch": 2675,
      "##atter": 2676,
      "cast": 2677,
      "buy": 2678,
      "mention": 2679,
      "answer": 2680,
      "clean": 2681,
      "pul": 2682,
      "unf": 2683,
      "saying": 2684,
      "east": 2685,
      "##anger": 2686,
      "jap": 2687,
      "##erc": 2688,
      "autom": 2689,
      "ox": 2690,
      "showed": 2691,
      "mc": 2692,
      "agreement": 2693,
      "log": 2694,
      "inn": 2695,
      "sem": 2696,
      "leav": 2697,
      "##ription": 2698,
      "perfect": 2699,
      "feb": 2700,
      "bott": 2701,
      "rout": 2702,
      "recently": 2703,
      "leaders": 2704,
      "maybe": 2705,
      "dut": 2706,
      "september": 2707,
      "countries": 2708,
      "middle": 2709,
      "##thern": 2710,
      "##uel": 2711,
      "includes": 2712,
      "attor": 2713,
      "whose": 2714,
      "eth": 2715,
      "normal": 2716,
      "box": 2717,
      "october": 2718,
      "morning": 2719,
      "fast": 2720,
      "century": 2721,
      "##bor": 2722,
      "##11": 2723,
      "correct": 2724,
      "dro": 2725,
      "nar": 2726,
      "2015": 2727,
      "##rated": 2728,
      "geor": 2729,
      "gar": 2730,
      "##reme": 2731,
      "##head": 2732,
      "ens": 2733,
      "science": 2734,
      "methods": 2735,
      "exact": 2736,
      "developed": 2737,
      "implement": 2738,
      "emerg": 2739,
      "scient": 2740,
      "##astic": 2741,
      "global": 2742,
      "region": 2743,
      "roll": 2744,
      "altern": 2745,
      "sym": 2746,
      "financial": 2747,
      "washing": 2748,
      "attention": 2749,
      "eight": 2750,
      "display": 2751,
      "diagn": 2752,
      "bey": 2753,
      "##val": 2754,
      "song": 2755,
      "##ores": 2756,
      "##cr": 2757,
      "wrote": 2758,
      "purpose": 2759,
      "japan": 2760,
      "slow": 2761,
      "impl": 2762,
      "rom": 2763,
      "execut": 2764,
      "bud": 2765,
      "learn": 2766,
      "democr": 2767,
      "version": 2768,
      "previous": 2769,
      "##0s": 2770,
      "writing": 2771,
      "concept": 2772,
      "cat": 2773,
      "earlier": 2774,
      "file": 2775,
      "##reg": 2776,
      "experim": 2777,
      "published": 2778,
      "primary": 2779,
      "pretty": 2780,
      "corpor": 2781,
      "effective": 2782,
      "decided": 2783,
      "tal": 2784,
      "december": 2785,
      "establish": 2786,
      "##king": 2787,
      "memory": 2788,
      "born": 2789,
      "uk": 2790,
      "modern": 2791,
      "chem": 2792,
      "##ession": 2793,
      "positive": 2794,
      "##rupt": 2795,
      "mi": 2796,
      "du": 2797,
      "mov": 2798,
      "##ha": 2799,
      "##iation": 2800,
      "##osing": 2801,
      "##unt": 2802,
      "##itness": 2803,
      "nove": 2804,
      "upd": 2805,
      "32": 2806,
      "##____": 2807,
      "##light": 2808,
      "shar": 2809,
      "hous": 2810,
      "english": 2811,
      "insur": 2812,
      "##oon": 2813,
      "via": 2814,
      "nu": 2815,
      "##//": 2816,
      "limit": 2817,
      "analy": 2818,
      "##ground": 2819,
      "transfer": 2820,
      "stage": 2821,
      "situation": 2822,
      "built": 2823,
      "november": 2824,
      "petition": 2825,
      "wed": 2826,
      "2010": 2827,
      "worth": 2828,
      "reading": 2829,
      "tur": 2830,
      "increasing": 2831,
      "histor": 2832,
      "jack": 2833,
      "##lusion": 2834,
      "##mer": 2835,
      "2011": 2836,
      "convers": 2837,
      "coup": 2838,
      "beyond": 2839,
      "surpr": 2840,
      "##ett": 2841,
      "],": 2842,
      "stru": 2843,
      "worked": 2844,
      "willi": 2845,
      "greater": 2846,
      "plat": 2847,
      "##pri": 2848,
      "parents": 2849,
      "doub": 2850,
      "proceed": 2851,
      "36": 2852,
      "director": 2853,
      "drive": 2854,
      "filed": 2855,
      "##vey": 2856,
      "unit": 2857,
      "capital": 2858,
      "crim": 2859,
      "##cil": 2860,
      "##icles": 2861,
      "hear": 2862,
      "swe": 2863,
      "chief": 2864,
      "afric": 2865,
      "transm": 2866,
      "hearing": 2867,
      "manu": 2868,
      "tex": 2869,
      "2017": 2870,
      "command": 2871,
      "congress": 2872,
      "\".": 2873,
      "british": 2874,
      "sho": 2875,
      "alone": 2876,
      "match": 2877,
      "devices": 2878,
      "##wise": 2879,
      "basis": 2880,
      "anti": 2881,
      "popular": 2882,
      "##utions": 2883,
      "feed": 2884,
      "average": 2885,
      "syn": 2886,
      "users": 2887,
      "expected": 2888,
      "difference": 2889,
      "currently": 2890,
      "commer": 2891,
      "195": 2892,
      "computer": 2893,
      "##ster": 2894,
      "magn": 2895,
      "band": 2896,
      "counsel": 2897,
      "parties": 2898,
      "##inated": 2899,
      "prec": 2900,
      "manufact": 2901,
      "##oper": 2902,
      "##iet": 2903,
      "island": 2904,
      "##vert": 2905,
      "union": 2906,
      "dog": 2907,
      "moved": 2908,
      "meeting": 2909,
      "der": 2910,
      "remain": 2911,
      "tried": 2912,
      "##ham": 2913,
      "length": 2914,
      "played": 2915,
      "htt": 2916,
      "avoid": 2917,
      "lond": 2918,
      "please": 2919,
      "designed": 2920,
      "operation": 2921,
      "hund": 2922,
      "##isl": 2923,
      "released": 2924,
      "books": 2925,
      "conclud": 2926,
      "##body": 2927,
      "wife": 2928,
      "voice": 2929,
      "##rom": 2930,
      "defense": 2931,
      "defendants": 2932,
      "minim": 2933,
      "tom": 2934,
      "##atives": 2935,
      "##aged": 2936,
      "challeng": 2937,
      "opinion": 2938,
      "prefer": 2939,
      "takes": 2940,
      "hundred": 2941,
      "##ault": 2942,
      "medic": 2943,
      "##xic": 2944,
      "##airs": 2945,
      "##19": 2946,
      "##ald": 2947,
      "je": 2948,
      "station": 2949,
      "print": 2950,
      "followed": 2951,
      "aim": 2952,
      "load": 2953,
      "brain": 2954,
      "vill": 2955,
      "gro": 2956,
      "##12": 2957,
      "labor": 2958,
      "officer": 2959,
      "33": 2960,
      "dim": 2961,
      "acqu": 2962,
      "##aled": 2963,
      "invention": 2964,
      "##fort": 2965,
      "##fl": 2966,
      "movement": 2967,
      "stock": 2968,
      "##apy": 2969,
      "rat": 2970,
      "seemed": 2971,
      "touch": 2972,
      "##ties": 2973,
      "lives": 2974,
      "london": 2975,
      "china": 2976,
      "established": 2977,
      "strength": 2978,
      "directly": 2979,
      "hall": 2980,
      "hop": 2981,
      "career": 2982,
      "mac": 2983,
      "letter": 2984,
      "##ribution": 2985,
      "##ades": 2986,
      "quickly": 2987,
      "instru": 2988,
      "subm": 2989,
      "##lig": 2990,
      "recover": 2991,
      "appropri": 2992,
      "blue": 2993,
      "circum": 2994,
      "austral": 2995,
      "interp": 2996,
      "##ography": 2997,
      "doesn": 2998,
      "prem": 2999,
      "##pir": 3000,
      "cook": 3001,
      "install": 3002,
      "mel": 3003,
      "jew": 3004,
      "trade": 3005,
      "regular": 3006,
      "performed": 3007,
      "meaning": 3008,
      "##wor": 3009,
      "phone": 3010,
      "##lin": 3011,
      "thous": 3012,
      "website": 3013,
      "finding": 3014,
      "committ": 3015,
      "exerc": 3016,
      "appellant": 3017,
      "washington": 3018,
      "lin": 3019,
      "parts": 3020,
      "surg": 3021,
      "jury": 3022,
      "learning": 3023,
      "bab": 3024,
      "continued": 3025,
      "://": 3026,
      "rules": 3027,
      "costs": 3028,
      "birth": 3029,
      "##enge": 3030,
      "determine": 3031,
      "failed": 3032,
      "compar": 3033,
      "error": 3034,
      "45": 3035,
      "mix": 3036,
      "sto": 3037,
      "safety": 3038,
      "river": 3039,
      "demand": 3040,
      "##ruary": 3041,
      "frame": 3042,
      "throughout": 3043,
      "foreign": 3044,
      "alb": 3045,
      "reasons": 3046,
      "goal": 3047,
      "substant": 3048,
      "##iday": 3049,
      "sequ": 3050,
      "myself": 3051,
      "carry": 3052,
      "legisl": 3053,
      "##omp": 3054,
      "allowed": 3055,
      "calif": 3056,
      "##ternal": 3057,
      "ones": 3058,
      "wild": 3059,
      "boy": 3060,
      "##hold": 3061,
      "types": 3062,
      "chann": 3063,
      "degree": 3064,
      "playing": 3065,
      "stated": 3066,
      "2008": 3067,
      "nearly": 3068,
      "february": 3069,
      "suit": 3070,
      ")(": 3071,
      "player": 3072,
      "occurr": 3073,
      "presented": 3074,
      "confir": 3075,
      "##onic": 3076,
      "brand": 3077,
      "wide": 3078,
      "lif": 3079,
      "liber": 3080,
      "etc": 3081,
      "council": 3082,
      "lad": 3083,
      "dism": 3084,
      "direction": 3085,
      "opportunity": 3086,
      "##arm": 3087,
      "comment": 3088,
      "store": 3089,
      "thinking": 3090,
      "reflect": 3091,
      "obv": 3092,
      "notice": 3093,
      "ok": 3094,
      "quar": 3095,
      "brown": 3096,
      "##apt": 3097,
      "##istics": 3098,
      "individuals": 3099,
      "feet": 3100,
      "34": 3101,
      "2009": 3102,
      "193": 3103,
      "mut": 3104,
      "seven": 3105,
      "fat": 3106,
      "launch": 3107,
      "##aries": 3108,
      "towards": 3109,
      "failure": 3110,
      "indu": 3111,
      "applied": 3112,
      "capac": 3113,
      "journal": 3114,
      "ct": 3115,
      "association": 3116,
      "rap": 3117,
      "convention": 3118,
      "sand": 3119,
      "david": 3120,
      "##anch": 3121,
      "qual": 3122,
      "status": 3123,
      "){": 3124,
      "discl": 3125,
      "hyd": 3126,
      "wes": 3127,
      "culture": 3128,
      "predict": 3129,
      "lines": 3130,
      "##oles": 3131,
      "brief": 3132,
      "eye": 3133,
      "burn": 3134,
      "fif": 3135,
      "##omb": 3136,
      "heat": 3137,
      "il": 3138,
      "understanding": 3139,
      "software": 3140,
      "clearly": 3141,
      "wid": 3142,
      "paid": 3143,
      "ut": 3144,
      "=\"": 3145,
      "rot": 3146,
      "isra": 3147,
      "credit": 3148,
      "##cious": 3149,
      "title": 3150,
      "overall": 3151,
      "expression": 3152,
      "behavior": 3153,
      "concent": 3154,
      "wal": 3155,
      "repe": 3156,
      "jur": 3157,
      "values": 3158,
      "##more": 3159,
      "##aces": 3160,
      "charge": 3161,
      "truth": 3162,
      "active": 3163,
      "##lim": 3164,
      "workers": 3165,
      "##osure": 3166,
      "justice": 3167,
      "neigh": 3168,
      "adult": 3169,
      "champ": 3170,
      "2018": 3171,
      "##iful": 3172,
      "couple": 3173,
      "##ford": 3174,
      "stress": 3175,
      "continu": 3176,
      "league": 3177,
      "mechanism": 3178,
      "##ipp": 3179,
      "cool": 3180,
      "##========": 3181,
      "layer": 3182,
      "transport": 3183,
      "vehicle": 3184,
      "sleep": 3185,
      "mart": 3186,
      "plant": 3187,
      "]\\].": 3188,
      "affect": 3189,
      "completely": 3190,
      "##ext": 3191,
      "##semb": 3192,
      "!\"": 3193,
      "hair": 3194,
      "youre": 3195,
      "##aughter": 3196,
      "##aily": 3197,
      "amaz": 3198,
      "advant": 3199,
      "californ": 3200,
      "%)": 3201,
      "emot": 3202,
      "##itude": 3203,
      "blog": 3204,
      "images": 3205,
      "write": 3206,
      "##itation": 3207,
      "##aught": 3208,
      "french": 3209,
      "race": 3210,
      "skin": 3211,
      "highly": 3212,
      "##itter": 3213,
      "##ests": 3214,
      "sort": 3215,
      "choice": 3216,
      "moving": 3217,
      "cru": 3218,
      "camer": 3219,
      "nation": 3220,
      "spirit": 3221,
      "cro": 3222,
      "rand": 3223,
      "internet": 3224,
      "##ari": 3225,
      "##band": 3226,
      "majority": 3227,
      "presence": 3228,
      "ready": 3229,
      "esc": 3230,
      "chapter": 3231,
      "unc": 3232,
      "leading": 3233,
      "##ancy": 3234,
      "##idents": 3235,
      "##80": 3236,
      "caused": 3237,
      "hyp": 3238,
      "nav": 3239,
      "candid": 3240,
      "##olic": 3241,
      "paul": 3242,
      "victim": 3243,
      "easily": 3244,
      "mad": 3245,
      "bul": 3246,
      "safe": 3247,
      "formed": 3248,
      "professional": 3249,
      "lock": 3250,
      "didnt": 3251,
      "##erson": 3252,
      "##ille": 3253,
      "activities": 3254,
      "chance": 3255,
      "summer": 3256,
      "produced": 3257,
      "army": 3258,
      "resources": 3259,
      "##encies": 3260,
      "exch": 3261,
      "cant": 3262,
      "consequ": 3263,
      "80": 3264,
      "benefits": 3265,
      "administration": 3266,
      "##load": 3267,
      "##order": 3268,
      "israel": 3269,
      "bow": 3270,
      "decre": 3271,
      "attorney": 3272,
      "origin": 3273,
      "happened": 3274,
      "theory": 3275,
      "argument": 3276,
      "shot": 3277,
      "##leg": 3278,
      "switch": 3279,
      "goes": 3280,
      "constitution": 3281,
      "reports": 3282,
      "##bur": 3283,
      "apart": 3284,
      "died": 3285,
      "daily": 3286,
      "\",": 3287,
      "interesting": 3288,
      "hus": 3289,
      "##esis": 3290,
      "solution": 3291,
      "42": 3292,
      "##acc": 3293,
      "committee": 3294,
      "##dom": 3295,
      "satis": 3296,
      "element": 3297,
      "##yr": 3298,
      "location": 3299,
      "fine": 3300,
      "quant": 3301,
      "remo": 3302,
      "##ibly": 3303,
      "indeed": 3304,
      "novel": 3305,
      "regarding": 3306,
      "##gar": 3307,
      "37": 3308,
      "assum": 3309,
      "adop": 3310,
      "james": 3311,
      "determined": 3312,
      "located": 3313,
      "##aly": 3314,
      "election": 3315,
      "immediately": 3316,
      "ww": 3317,
      "electric": 3318,
      "wonder": 3319,
      "happy": 3320,
      "giving": 3321,
      "proposed": 3322,
      "##oring": 3323,
      "hes": 3324,
      "##yal": 3325,
      "##rant": 3326,
      "style": 3327,
      "##usion": 3328,
      "surr": 3329,
      "##amic": 3330,
      "changed": 3331,
      "email": 3332,
      "european": 3333,
      "fort": 3334,
      "witness": 3335,
      "mort": 3336,
      "courts": 3337,
      "species": 3338,
      "thank": 3339,
      "observed": 3340,
      "california": 3341,
      "previously": 3342,
      "##de": 3343,
      "income": 3344,
      "ms": 3345,
      "counter": 3346,
      "adjust": 3347,
      "coach": 3348,
      "##force": 3349,
      "certainly": 3350,
      "paint": 3351,
      "electron": 3352,
      "tor": 3353,
      "##bed": 3354,
      "serious": 3355,
      "##ients": 3356,
      "drink": 3357,
      "accur": 3358,
      "spent": 3359,
      "##lection": 3360,
      "rates": 3361,
      "insurance": 3362,
      "##set": 3363,
      "##ogen": 3364,
      "que": 3365,
      "gone": 3366,
      "##14": 3367,
      "tro": 3368,
      "shoot": 3369,
      "digital": 3370,
      "##entially": 3371,
      "promot": 3372,
      "assemb": 3373,
      "mir": 3374,
      "significantly": 3375,
      "thanks": 3376,
      "70": 3377,
      "master": 3378,
      "indian": 3379,
      "##erve": 3380,
      "##13": 3381,
      "90": 3382,
      "yourself": 3383,
      "independent": 3384,
      "prison": 3385,
      "context": 3386,
      "requires": 3387,
      "named": 3388,
      "die": 3389,
      "##15": 3390,
      "sud": 3391,
      "estim": 3392,
      "elements": 3393,
      "alleged": 3394,
      "external": 3395,
      "##vent": 3396,
      "##zz": 3397,
      "receive": 3398,
      "scale": 3399,
      "beginning": 3400,
      "wish": 3401,
      "##adem": 3402,
      "minister": 3403,
      "##ael": 3404,
      "whom": 3405,
      "plaintiffs": 3406,
      "contain": 3407,
      "reference": 3408,
      "complaint": 3409,
      "noted": 3410,
      "numbers": 3411,
      "##mon": 3412,
      "##aming": 3413,
      "citiz": 3414,
      "nucle": 3415,
      "sexual": 3416,
      "princip": 3417,
      "##ae": 3418,
      "push": 3419,
      "2007": 3420,
      "student": 3421,
      "identified": 3422,
      "authority": 3423,
      "virt": 3424,
      "testim": 3425,
      "##ulated": 3426,
      "##resp": 3427,
      "option": 3428,
      "protein": 3429,
      "danger": 3430,
      "initial": 3431,
      "##ested": 3432,
      "evalu": 3433,
      "##ky": 3434,
      "sea": 3435,
      "passed": 3436,
      "construction": 3437,
      "##rim": 3438,
      "ign": 3439,
      "thom": 3440,
      "##ken": 3441,
      "platform": 3442,
      "wasn": 3443,
      "spect": 3444,
      "motor": 3445,
      "].": 3446,
      "detect": 3447,
      "sales": 3448,
      "screen": 3449,
      "western": 3450,
      "findings": 3451,
      "forces": 3452,
      "circumst": 3453,
      "records": 3454,
      "factor": 3455,
      "38": 3456,
      "enh": 3457,
      "organization": 3458,
      "message": 3459,
      "effort": 3460,
      "##char": 3461,
      "materials": 3462,
      "portion": 3463,
      "##16": 3464,
      "hur": 3465,
      "damage": 3466,
      "phase": 3467,
      "theres": 3468,
      "rail": 3469,
      "details": 3470,
      "plans": 3471,
      "pow": 3472,
      "india": 3473,
      "academ": 3474,
      "temperature": 3475,
      "facts": 3476,
      "kept": 3477,
      "##18": 3478,
      "##ifying": 3479,
      "beautiful": 3480,
      "machine": 3481,
      "##ding": 3482,
      "##que": 3483,
      "placed": 3484,
      "tv": 3485,
      "references": 3486,
      "agency": 3487,
      "peace": 3488,
      "fish": 3489,
      "goog": 3490,
      "fully": 3491,
      "aspect": 3492,
      "sell": 3493,
      "doll": 3494,
      "##ech": 3495,
      "officers": 3496,
      "electro": 3497,
      "sched": 3498,
      "conserv": 3499,
      "battle": 3500,
      "mist": 3501,
      "actual": 3502,
      "##17": 3503,
      "##rial": 3504,
      "##using": 3505,
      "looks": 3506,
      "glass": 3507,
      "cup": 3508,
      "talking": 3509,
      "od": 3510,
      "dismiss": 3511,
      "injury": 3512,
      "piece": 3513,
      "##ellig": 3514,
      "growing": 3515,
      "##actions": 3516,
      "challenge": 3517,
      "kids": 3518,
      "liqu": 3519,
      "whe": 3520,
      "specifically": 3521,
      "communic": 3522,
      "actions": 3523,
      "participants": 3524,
      "constant": 3525,
      "exactly": 3526,
      "ast": 3527,
      "wel": 3528,
      "##rew": 3529,
      "om": 3530,
      "##uc": 3531,
      "basic": 3532,
      "##iers": 3533,
      "ran": 3534,
      "appropriate": 3535,
      "\"}": 3536,
      "reached": 3537,
      "influence": 3538,
      "39": 3539,
      "##bi": 3540,
      "##ounds": 3541,
      "officials": 3542,
      "hers": 3543,
      "##uration": 3544,
      "cath": 3545,
      "44": 3546,
      "starting": 3547,
      "connection": 3548,
      "##aging": 3549,
      "chair": 3550,
      "models": 3551,
      "cold": 3552,
      "subsequ": 3553,
      "##(#": 3554,
      "feeling": 3555,
      "floor": 3556,
      "employees": 3557,
      "doesnt": 3558,
      "fit": 3559,
      "rh": 3560,
      "holding": 3561,
      "valid": 3562,
      "separate": 3563,
      "mobile": 3564,
      "allows": 3565,
      "reb": 3566,
      "obtained": 3567,
      "famil": 3568,
      "##atever": 3569,
      "click": 3570,
      "remains": 3571,
      "returned": 3572,
      "protection": 3573,
      "happen": 3574,
      "critical": 3575,
      "testimony": 3576,
      "calcul": 3577,
      "internal": 3578,
      "providing": 3579,
      "task": 3580,
      "assign": 3581,
      "radio": 3582,
      "applications": 3583,
      "spring": 3584,
      "##outh": 3585,
      "occas": 3586,
      "metal": 3587,
      "##iled": 3588,
      "schools": 3589,
      "##room": 3590,
      "monitor": 3591,
      "raised": 3592,
      "poll": 3593,
      "##ara": 3594,
      "criminal": 3595,
      "negative": 3596,
      "www": 3597,
      "whatever": 3598,
      "500": 3599,
      "appears": 3600,
      "hill": 3601,
      "programs": 3602,
      "pun": 3603,
      "attach": 3604,
      "faith": 3605,
      "##phone": 3606,
      "larger": 3607,
      "lord": 3608,
      "##iber": 3609,
      "##umn": 3610,
      "confl": 3611,
      "tum": 3612,
      "libr": 3613,
      "util": 3614,
      "output": 3615,
      "##icians": 3616,
      "##bon": 3617,
      "huge": 3618,
      "achieve": 3619,
      "maxim": 3620,
      "reduce": 3621,
      "##verse": 3622,
      "sund": 3623,
      "produce": 3624,
      "typically": 3625,
      "43": 3626,
      "supreme": 3627,
      "2006": 3628,
      "dan": 3629,
      "encoura": 3630,
      "core": 3631,
      "##ls": 3632,
      "amb": 3633,
      "gets": 3634,
      "agre": 3635,
      "##oma": 3636,
      "##ole": 3637,
      "useful": 3638,
      "benefit": 3639,
      "unique": 3640,
      "weap": 3641,
      "absol": 3642,
      "extrem": 3643,
      "jer": 3644,
      "##odes": 3645,
      "cele": 3646,
      "fal": 3647,
      "transl": 3648,
      "background": 3649,
      "spread": 3650,
      "##ience": 3651,
      "communication": 3652,
      "breat": 3653,
      "##inct": 3654,
      "##enue": 3655,
      "none": 3656,
      "served": 3657,
      "lic": 3658,
      "optim": 3659,
      "occup": 3660,
      "killed": 3661,
      "traditional": 3662,
      "##off": 3663,
      "successful": 3664,
      "slight": 3665,
      "disapp": 3666,
      "gard": 3667,
      "collection": 3668,
      "intellig": 3669,
      "freed": 3670,
      "2000": 3671,
      "##cra": 3672,
      "picture": 3673,
      "ren": 3674,
      ",'": 3675,
      "satisf": 3676,
      "football": 3677,
      "sympt": 3678,
      "##respond": 3679,
      "##cs": 3680,
      "reduced": 3681,
      "##osph": 3682,
      "##iced": 3683,
      "dyn": 3684,
      "strugg": 3685,
      "announced": 3686,
      "contribut": 3687,
      "google": 3688,
      "customers": 3689,
      "notes": 3690,
      "places": 3691,
      "##inate": 3692,
      "fresh": 3693,
      "farm": 3694,
      "ideas": 3695,
      "appeared": 3696,
      "mental": 3697,
      "existing": 3698,
      "relevant": 3699,
      "flor": 3700,
      "approxim": 3701,
      "##ressed": 3702,
      "48": 3703,
      "billion": 3704,
      "offered": 3705,
      "correspond": 3706,
      "##ban": 3707,
      "opening": 3708,
      "photo": 3709,
      "straight": 3710,
      "save": 3711,
      "debt": 3712,
      "meant": 3713,
      "##inese": 3714,
      "##ram": 3715,
      "otherwise": 3716,
      "smith": 3717,
      "mole": 3718,
      "ben": 3719,
      "recommend": 3720,
      "tiss": 3721,
      "lou": 3722,
      "items": 3723,
      "apply": 3724,
      "##izes": 3725,
      "##rit": 3726,
      "guid": 3727,
      "van": 3728,
      "##wood": 3729,
      "england": 3730,
      "denied": 3731,
      "interpret": 3732,
      "manner": 3733,
      "46": 3734,
      "efforts": 3735,
      "guard": 3736,
      "heavy": 3737,
      "choose": 3738,
      "laws": 3739,
      "##aced": 3740,
      "uses": 3741,
      "opened": 3742,
      "reasonable": 3743,
      "##aur": 3744,
      "crow": 3745,
      "partners": 3746,
      "##iring": 3747,
      "ship": 3748,
      "tend": 3749,
      "double": 3750,
      "trip": 3751,
      "##vision": 3752,
      "comfort": 3753,
      "leader": 3754,
      "chinese": 3755,
      "amend": 3756,
      "connected": 3757,
      "feature": 3758,
      "differences": 3759,
      "equip": 3760,
      "exhib": 3761,
      "conflict": 3762,
      "doubt": 3763,
      "##men": 3764,
      "setting": 3765,
      "##aker": 3766,
      "##omy": 3767,
      "bond": 3768,
      "conference": 3769,
      "stories": 3770,
      "param": 3771,
      "brother": 3772,
      "ensure": 3773,
      "christian": 3774,
      "##ny": 3775,
      "47": 3776,
      "bound": 3777,
      "album": 3778,
      "firm": 3779,
      "emph": 3780,
      "##ij": 3781,
      "female": 3782,
      "gives": 3783,
      "ive": 3784,
      "95": 3785,
      "vote": 3786,
      "male": 3787,
      "teams": 3788,
      "spr": 3789,
      "##ev": 3790,
      "george": 3791,
      "murder": 3792,
      "quot": 3793,
      "stuff": 3794,
      "closed": 3795,
      "sudden": 3796,
      "transform": 3797,
      "hun": 3798,
      "defined": 3799,
      "bag": 3800,
      "eventually": 3801,
      "traff": 3802,
      "##ca": 3803,
      "distance": 3804,
      "49": 3805,
      "crime": 3806,
      "minor": 3807,
      "##ias": 3808,
      "standing": 3809,
      "supply": 3810,
      "sust": 3811,
      "appoint": 3812,
      "2005": 3813,
      "variety": 3814,
      "operations": 3815,
      "summary": 3816,
      "michael": 3817,
      "investigation": 3818,
      "input": 3819,
      "restrict": 3820,
      "assert": 3821,
      "links": 3822,
      "trou": 3823,
      "windows": 3824,
      "properties": 3825,
      "##iles": 3826,
      "spl": 3827,
      "fing": 3828,
      "##field": 3829,
      "75": 3830,
      "wait": 3831,
      "testing": 3832,
      "incor": 3833,
      "circumstances": 3834,
      "prosec": 3835,
      "##riage": 3836,
      "##equ": 3837,
      "recept": 3838,
      "##bl": 3839,
      "twenty": 3840,
      "husband": 3841,
      "##spect": 3842,
      "##ils": 3843,
      "families": 3844,
      "cloth": 3845,
      "discussion": 3846,
      "onto": 3847,
      "projects": 3848,
      "55": 3849,
      "forms": 3850,
      "##iciency": 3851,
      "reli": 3852,
      "tools": 3853,
      "epis": 3854,
      "carried": 3855,
      "unless": 3856,
      "##me": 3857,
      "##aud": 3858,
      "http": 3859,
      "becomes": 3860,
      "reality": 3861,
      "##oo": 3862,
      "##ortion": 3863,
      "##tered": 3864,
      "processing": 3865,
      "sites": 3866,
      "##encing": 3867,
      "relatively": 3868,
      "agent": 3869,
      "capacity": 3870,
      "nut": 3871,
      "random": 3872,
      "treated": 3873,
      "nice": 3874,
      "options": 3875,
      "52": 3876,
      "wants": 3877,
      "description": 3878,
      "division": 3879,
      "##iling": 3880,
      "economy": 3881,
      "immun": 3882,
      "harm": 3883,
      "sources": 3884,
      "](#": 3885,
      "exercise": 3886,
      "##uk": 3887,
      "visual": 3888,
      "bottom": 3889,
      "ec": 3890,
      "##ste": 3891,
      "scen": 3892,
      "therapy": 3893,
      "beg": 3894,
      "isn": 3895,
      "##ipped": 3896,
      "advert": 3897,
      "mentioned": 3898,
      "steps": 3899,
      "##ensity": 3900,
      "commercial": 3901,
      "serve": 3902,
      "expert": 3903,
      "reject": 3904,
      "##ube": 3905,
      "frequency": 3906,
      "movie": 3907,
      "entered": 3908,
      "complic": 3909,
      "pull": 3910,
      "send": 3911,
      "animals": 3912,
      "surround": 3913,
      "##ida": 3914,
      "showing": 3915,
      "texas": 3916,
      "window": 3917,
      "mond": 3918,
      "##ocol": 3919,
      "##enses": 3920,
      "##aling": 3921,
      "equipment": 3922,
      "manager": 3923,
      "sad": 3924,
      "hell": 3925,
      "comments": 3926,
      "##----------------": 3927,
      "##abor": 3928,
      "ber": 3929,
      "cas": 3930,
      "organiz": 3931,
      "quarter": 3932,
      "frank": 3933,
      "ham": 3934,
      "adapt": 3935,
      "##iques": 3936,
      "illust": 3937,
      "driving": 3938,
      "##eline": 3939,
      "advantage": 3940,
      "scene": 3941,
      "mary": 3942,
      "smart": 3943,
      "ax": 3944,
      "cou": 3945,
      "solid": 3946,
      "##cast": 3947,
      "ded": 3948,
      "expand": 3949,
      "##ville": 3950,
      "stim": 3951,
      "##iders": 3952,
      "distribution": 3953,
      "doct": 3954,
      "emphas": 3955,
      "eat": 3956,
      "miles": 3957,
      "friday": 3958,
      "channel": 3959,
      "spot": 3960,
      "speech": 3961,
      "americans": 3962,
      "older": 3963,
      "joint": 3964,
      "initi": 3965,
      "rapid": 3966,
      "mail": 3967,
      "54": 3968,
      "sample": 3969,
      "herself": 3970,
      "##ena": 3971,
      "sentence": 3972,
      "terror": 3973,
      "neither": 3974,
      "()": 3975,
      "##eration": 3976,
      "emp": 3977,
      "##ris": 3978,
      "strategy": 3979,
      "vent": 3980,
      "learned": 3981,
      "agreed": 3982,
      "##icial": 3983,
      "components": 3984,
      "philos": 3985,
      "patent": 3986,
      "kid": 3987,
      "sor": 3988,
      "explained": 3989,
      "guy": 3990,
      "##elled": 3991,
      "##istry": 3992,
      "unli": 3993,
      "requirements": 3994,
      "hydro": 3995,
      "administr": 3996,
      "acid": 3997,
      "##hol": 3998,
      "selected": 3999,
      "rise": 4000,
      "offers": 4001,
      "angel": 4002,
      "sir": 4003,
      "wil": 4004,
      "leaving": 4005,
      "canada": 4006,
      "bes": 4007,
      "edge": 4008,
      "cab": 4009,
      "skills": 4010,
      "##icip": 4011,
      "facebook": 4012,
      "franc": 4013,
      "destro": 4014,
      "##omet": 4015,
      "map": 4016,
      "responsible": 4017,
      "sufficient": 4018,
      "creating": 4019,
      "bay": 4020,
      "##ero": 4021,
      "instance": 4022,
      ".[": 4023,
      "william": 4024,
      "2004": 4025,
      "religious": 4026,
      "doctor": 4027,
      "##now": 4028,
      "multi": 4029,
      "construct": 4030,
      "##ded": 4031,
      "exchange": 4032,
      "##odies": 4033,
      "train": 4034,
      "satur": 4035,
      "identify": 4036,
      "##iant": 4037,
      "53": 4038,
      "##pro": 4039,
      "volume": 4040,
      "owners": 4041,
      "##elle": 4042,
      "storage": 4043,
      "##ey": 4044,
      "obama": 4045,
      "##wards": 4046,
      "##arian": 4047,
      "generation": 4048,
      "##ights": 4049,
      "liquid": 4050,
      "powerful": 4051,
      "contrast": 4052,
      "bib": 4053,
      "operating": 4054,
      "conclusion": 4055,
      "rub": 4056,
      "mission": 4057,
      "ice": 4058,
      "##ago": 4059,
      "##isc": 4060,
      "intended": 4061,
      "daughter": 4062,
      "sin": 4063,
      "planning": 4064,
      "robert": 4065,
      "##22": 4066,
      "diss": 4067,
      "phen": 4068,
      "##berg": 4069,
      "thick": 4070,
      "fle": 4071,
      "##iny": 4072,
      "environmental": 4073,
      "cd": 4074,
      "shut": 4075,
      "56": 4076,
      "##otic": 4077,
      "violence": 4078,
      "plus": 4079,
      "supported": 4080,
      "##ius": 4081,
      "seeing": 4082,
      "dry": 4083,
      "sunday": 4084,
      "conventional": 4085,
      "essential": 4086,
      "colon": 4087,
      "excell": 4088,
      "insp": 4089,
      "##iat": 4090,
      "procedure": 4091,
      "gall": 4092,
      "measures": 4093,
      "freedom": 4094,
      "fuel": 4095,
      "beat": 4096,
      "drop": 4097,
      "ahead": 4098,
      "girls": 4099,
      "resistance": 4100,
      "survey": 4101,
      "mexic": 4102,
      "arms": 4103,
      "revealed": 4104,
      "covered": 4105,
      "mand": 4106,
      "jun": 4107,
      "juris": 4108,
      "calls": 4109,
      "names": 4110,
      "bor": 4111,
      "coast": 4112,
      "config": 4113,
      "conducted": 4114,
      "drugs": 4115,
      "suggested": 4116,
      "animal": 4117,
      "numer": 4118,
      "jobs": 4119,
      "gene": 4120,
      "helped": 4121,
      "##ribute": 4122,
      "enem": 4123,
      "65": 4124,
      "##atically": 4125,
      "sports": 4126,
      "jes": 4127,
      "compr": 4128,
      "##ta": 4129,
      "guide": 4130,
      "alternative": 4131,
      "monday": 4132,
      "##board": 4133,
      "##zy": 4134,
      "ara": 4135,
      "##rier": 4136,
      "issued": 4137,
      "relief": 4138,
      "japanese": 4139,
      "senior": 4140,
      "approximately": 4141,
      "##ica": 4142,
      "##la": 4143,
      "server": 4144,
      "vac": 4145,
      "fourth": 4146,
      "plate": 4147,
      "statute": 4148,
      "register": 4149,
      "pair": 4150,
      "cris": 4151,
      "aware": 4152,
      "ye": 4153,
      "lived": 4154,
      "##anged": 4155,
      "eg": 4156,
      "##lor": 4157,
      "##amb": 4158,
      "score": 4159,
      "appre": 4160,
      "rank": 4161,
      "removed": 4162,
      "secretary": 4163,
      "math": 4164,
      "datab": 4165,
      "batter": 4166,
      "wire": 4167,
      "schem": 4168,
      "citizens": 4169,
      "index": 4170,
      "##uries": 4171,
      "##ulate": 4172,
      "##ingu": 4173,
      "observ": 4174,
      "replace": 4175,
      "improved": 4176,
      "##icated": 4177,
      "duty": 4178,
      "celebr": 4179,
      "couldn": 4180,
      "immig": 4181,
      "believed": 4182,
      "##works": 4183,
      "executive": 4184,
      "isol": 4185,
      "bind": 4186,
      "##ancing": 4187,
      "processes": 4188,
      "##rows": 4189,
      "##iment": 4190,
      "##itect": 4191,
      "mcc": 4192,
      "alex": 4193,
      "catch": 4194,
      "techniques": 4195,
      "upper": 4196,
      "2003": 4197,
      "cash": 4198,
      "##mp": 4199,
      "pursu": 4200,
      "##craft": 4201,
      "shape": 4202,
      "interested": 4203,
      "entit": 4204,
      "##icit": 4205,
      "##25": 4206,
      "sale": 4207,
      "healthy": 4208,
      "nine": 4209,
      "gather": 4210,
      "##atus": 4211,
      "inhib": 4212,
      "surgery": 4213,
      "belief": 4214,
      "tru": 4215,
      "critic": 4216,
      "ol": 4217,
      "occurred": 4218,
      "les": 4219,
      "##key": 4220,
      "forced": 4221,
      "##rical": 4222,
      "delay": 4223,
      "explain": 4224,
      "org": 4225,
      "##och": 4226,
      "64": 4227,
      "ath": 4228,
      "hyper": 4229,
      "characters": 4230,
      "climate": 4231,
      "chemical": 4232,
      "iv": 4233,
      "fab": 4234,
      "([@": 4235,
      "architect": 4236,
      "completed": 4237,
      "equal": 4238,
      "ali": 4239,
      "latest": 4240,
      "##cket": 4241,
      "stood": 4242,
      "signed": 4243,
      "consult": 4244,
      "##gl": 4245,
      "##ette": 4246,
      "highest": 4247,
      "##23": 4248,
      "##nel": 4249,
      "prepared": 4250,
      "france": 4251,
      "din": 4252,
      "jurisd": 4253,
      "hen": 4254,
      "stick": 4255,
      "moreover": 4256,
      "correl": 4257,
      "tree": 4258,
      "fixed": 4259,
      "tempor": 4260,
      "housing": 4261,
      "waiting": 4262,
      "willing": 4263,
      "champions": 4264,
      "gal": 4265,
      "shared": 4266,
      "graph": 4267,
      "pleas": 4268,
      "fans": 4269,
      "controlled": 4270,
      "symptoms": 4271,
      "tow": 4272,
      "relative": 4273,
      "smaller": 4274,
      "laugh": 4275,
      "decisions": 4276,
      "largest": 4277,
      "tues": 4278,
      "##ios": 4279,
      "download": 4280,
      "##well": 4281,
      "lie": 4282,
      "span": 4283,
      "##olf": 4284,
      "goals": 4285,
      "99": 4286,
      "knows": 4287,
      "philosoph": 4288,
      "2019": 4289,
      "mouth": 4290,
      "spend": 4291,
      "discussed": 4292,
      "finish": 4293,
      "##osite": 4294,
      "hotel": 4295,
      "##istan": 4296,
      "join": 4297,
      "##oty": 4298,
      "pil": 4299,
      "affir": 4300,
      "reform": 4301,
      "##iverse": 4302,
      "abuse": 4303,
      "commit": 4304,
      "library": 4305,
      "thomas": 4306,
      "]).": 4307,
      "cham": 4308,
      "tick": 4309,
      "fol": 4310,
      "causes": 4311,
      "situ": 4312,
      "investment": 4313,
      "russian": 4314,
      "57": 4315,
      "##bc": 4316,
      "assembly": 4317,
      "remained": 4318,
      "mode": 4319,
      "stopped": 4320,
      "volt": 4321,
      "rose": 4322,
      "standards": 4323,
      "2001": 4324,
      "testified": 4325,
      "shap": 4326,
      "television": 4327,
      "false": 4328,
      "ack": 4329,
      "engage": 4330,
      "gain": 4331,
      "pu": 4332,
      "sav": 4333,
      "##ii": 4334,
      "spok": 4335,
      "##oes": 4336,
      "speaking": 4337,
      "pip": 4338,
      "attract": 4339,
      "ru": 4340,
      "balance": 4341,
      "##itely": 4342,
      "traffic": 4343,
      "afford": 4344,
      "##oe": 4345,
      "documents": 4346,
      "mostly": 4347,
      "baby": 4348,
      "mrs": 4349,
      "forth": 4350,
      "introduced": 4351,
      "developing": 4352,
      "referred": 4353,
      "tast": 4354,
      "client": 4355,
      "tests": 4356,
      "ton": 4357,
      "mig": 4358,
      "##hes": 4359,
      "exposure": 4360,
      "revolution": 4361,
      "##24": 4362,
      "##ga": 4363,
      "extremely": 4364,
      "##ented": 4365,
      "pin": 4366,
      "royal": 4367,
      "alco": 4368,
      "##ula": 4369,
      "##going": 4370,
      "foundation": 4371,
      "southern": 4372,
      "{#": 4373,
      "##sey": 4374,
      "combination": 4375,
      "ring": 4376,
      "characteristics": 4377,
      "err": 4378,
      "##cular": 4379,
      "isl": 4380,
      "gri": 4381,
      "):": 4382,
      "las": 4383,
      "(\"": 4384,
      "estate": 4385,
      "minute": 4386,
      "parent": 4387,
      "kore": 4388,
      "panel": 4389,
      "budget": 4390,
      "rain": 4391,
      "annual": 4392,
      "camera": 4393,
      "enforce": 4394,
      "democratic": 4395,
      "##30": 4396,
      "centre": 4397,
      "2002": 4398,
      "guess": 4399,
      "isnt": 4400,
      "marriage": 4401,
      "extent": 4402,
      "properly": 4403,
      "tuesday": 4404,
      "react": 4405,
      "##ales": 4406,
      "thurs": 4407,
      "resol": 4408,
      "assessment": 4409,
      "rac": 4410,
      "suppl": 4411,
      "mos": 4412,
      "##aded": 4413,
      "repeated": 4414,
      "units": 4415,
      "importance": 4416,
      "square": 4417,
      "ended": 4418,
      "pray": 4419,
      "restaur": 4420,
      "##ulations": 4421,
      "##ba": 4422,
      "maintain": 4423,
      "ped": 4424,
      "gh": 4425,
      "purchase": 4426,
      "##ographic": 4427,
      "thousands": 4428,
      "##gu": 4429,
      "iii": 4430,
      "pra": 4431,
      "twitter": 4432,
      "arrived": 4433,
      "reaction": 4434,
      "tun": 4435,
      "fold": 4436,
      "compens": 4437,
      "luck": 4438,
      "attend": 4439,
      "##bid": 4440,
      "cooper": 4441,
      "59": 4442,
      "technique": 4443,
      "concerns": 4444,
      "##akers": 4445,
      "incident": 4446,
      "scientific": 4447,
      "##pa": 4448,
      "granted": 4449,
      "stone": 4450,
      "##bing": 4451,
      "wednes": 4452,
      "writ": 4453,
      "advanced": 4454,
      "resulting": 4455,
      "supposed": 4456,
      "uns": 4457,
      "charged": 4458,
      "##iliar": 4459,
      "lit": 4460,
      "##da": 4461,
      "##ria": 4462,
      "village": 4463,
      "seat": 4464,
      "apple": 4465,
      "##yer": 4466,
      "muse": 4467,
      "recorded": 4468,
      "neighbor": 4469,
      "agents": 4470,
      "##entions": 4471,
      "##ros": 4472,
      "customer": 4473,
      "nom": 4474,
      "##orter": 4475,
      "weak": 4476,
      "evening": 4477,
      "germany": 4478,
      "australia": 4479,
      "respectively": 4480,
      "politics": 4481,
      "lake": 4482,
      "da": 4483,
      "cart": 4484,
      "##ki": 4485,
      "medium": 4486,
      "driver": 4487,
      "directed": 4488,
      "sky": 4489,
      "prime": 4490,
      "richard": 4491,
      "filled": 4492,
      "dna": 4493,
      "photos": 4494,
      "saturday": 4495,
      "functions": 4496,
      "tissue": 4497,
      "chic": 4498,
      "##acter": 4499,
      "discovered": 4500,
      "snow": 4501,
      "innov": 4502,
      "beach": 4503,
      "literature": 4504,
      "bon": 4505,
      "becoming": 4506,
      "shock": 4507,
      "transc": 4508,
      "fro": 4509,
      "finished": 4510,
      "fan": 4511,
      "##icted": 4512,
      "funds": 4513,
      "##za": 4514,
      "##aves": 4515,
      "changing": 4516,
      "russia": 4517,
      "purposes": 4518,
      "##rig": 4519,
      "neuro": 4520,
      "jose": 4521,
      "warm": 4522,
      "##ship": 4523,
      "66": 4524,
      "involve": 4525,
      "component": 4526,
      "intelligence": 4527,
      "flat": 4528,
      "affected": 4529,
      "kick": 4530,
      "thursday": 4531,
      "bright": 4532,
      "partner": 4533,
      "##down": 4534,
      "string": 4535,
      "acknow": 4536,
      "interests": 4537,
      "imposs": 4538,
      "joined": 4539,
      "remove": 4540,
      "##irt": 4541,
      "dream": 4542,
      "cultural": 4543,
      "elim": 4544,
      "oblig": 4545,
      "reduction": 4546,
      "selection": 4547,
      "combined": 4548,
      "##ologies": 4549,
      "owner": 4550,
      "fash": 4551,
      "diet": 4552,
      "professor": 4553,
      "seek": 4554,
      "furthermore": 4555,
      "accident": 4556,
      "clar": 4557,
      "charges": 4558,
      "vit": 4559,
      "virgin": 4560,
      "wednesday": 4561,
      "nations": 4562,
      "trib": 4563,
      "northern": 4564,
      "focused": 4565,
      "youth": 4566,
      "iron": 4567,
      "appe": 4568,
      "flex": 4569,
      "ordered": 4570,
      "adding": 4571,
      "scott": 4572,
      "ip": 4573,
      "follows": 4574,
      "##cks": 4575,
      "vs": 4576,
      "##aper": 4577,
      "propos": 4578,
      "technical": 4579,
      "winter": 4580,
      "claimed": 4581,
      "pregn": 4582,
      "##ears": 4583,
      "incorpor": 4584,
      "##antic": 4585,
      "nuclear": 4586,
      "conver": 4587,
      "perspect": 4588,
      "wave": 4589,
      "appreci": 4590,
      "58": 4591,
      "##iveness": 4592,
      "mont": 4593,
      "forg": 4594,
      "files": 4595,
      "##oking": 4596,
      "wat": 4597,
      "kar": 4598,
      "contains": 4599,
      "policies": 4600,
      "##ka": 4601,
      "##my": 4602,
      "concerned": 4603,
      "subjects": 4604,
      "##imately": 4605,
      "delivery": 4606,
      "pac": 4607,
      "ira": 4608,
      "prices": 4609,
      "fru": 4610,
      "column": 4611,
      "persons": 4612,
      "married": 4613,
      "managed": 4614,
      "rod": 4615,
      "##unk": 4616,
      "ray": 4617,
      "asking": 4618,
      "proof": 4619,
      "vision": 4620,
      "##rap": 4621,
      "films": 4622,
      "theyre": 4623,
      "pp": 4624,
      "unfortun": 4625,
      "cities": 4626,
      "keeping": 4627,
      "draft": 4628,
      "jump": 4629,
      "receiving": 4630,
      "experienced": 4631,
      "apparatus": 4632,
      "challenges": 4633,
      "##roid": 4634,
      "##ston": 4635,
      "##vin": 4636,
      "prospect": 4637,
      "remaining": 4638,
      "corner": 4639,
      "##itz": 4640,
      "sitting": 4641,
      "##eters": 4642,
      "throw": 4643,
      "entirely": 4644,
      "##ooth": 4645,
      "employment": 4646,
      "instant": 4647,
      "numerous": 4648,
      "allowing": 4649,
      "mas": 4650,
      "##uted": 4651,
      "excellent": 4652,
      "intervention": 4653,
      "republican": 4654,
      "##ata": 4655,
      "##itors": 4656,
      "##ician": 4657,
      "breast": 4658,
      "entitled": 4659,
      "##inc": 4660,
      "truly": 4661,
      "..": 4662,
      "containing": 4663,
      "payment": 4664,
      "acts": 4665,
      "##aked": 4666,
      "kh": 4667,
      "fashion": 4668,
      "accordingly": 4669,
      "os": 4670,
      "entry": 4671,
      "behavi": 4672,
      "objects": 4673,
      "belong": 4674,
      "300": 4675,
      "fest": 4676,
      "##itable": 4677,
      "substantial": 4678,
      "optical": 4679,
      "quiet": 4680,
      "##estic": 4681,
      "05": 4682,
      "fib": 4683,
      "views": 4684,
      "truck": 4685,
      "magaz": 4686,
      "##ront": 4687,
      "watching": 4688,
      "rid": 4689,
      "thin": 4690,
      "gate": 4691,
      "sar": 4692,
      "marketing": 4693,
      "resolution": 4694,
      "weather": 4695,
      "occur": 4696,
      "##cient": 4697,
      "louis": 4698,
      "slightly": 4699,
      "##anging": 4700,
      "amendment": 4701,
      "guys": 4702,
      "worse": 4703,
      "loved": 4704,
      "remind": 4705,
      "knowing": 4706,
      "severe": 4707,
      "institute": 4708,
      "competition": 4709,
      "negot": 4710,
      "##hab": 4711,
      "coff": 4712,
      "lose": 4713,
      "expressed": 4714,
      "##27": 4715,
      "##rie": 4716,
      "illeg": 4717,
      "communities": 4718,
      "##ours": 4719,
      "##issions": 4720,
      "apparently": 4721,
      "##isation": 4722,
      "trail": 4723,
      "synth": 4724,
      "johnson": 4725,
      "fant": 4726,
      "underst": 4727,
      "arrange": 4728,
      "coverage": 4729,
      "functional": 4730,
      "easier": 4731,
      "190": 4732,
      "',": 4733,
      "destroy": 4734,
      "_the": 4735,
      "contem": 4736,
      "statements": 4737,
      "border": 4738,
      "##oster": 4739,
      "distribut": 4740,
      "advance": 4741,
      "iran": 4742,
      "happens": 4743,
      "calling": 4744,
      "possibility": 4745,
      "carbon": 4746,
      "museum": 4747,
      "##teen": 4748,
      "electronic": 4749,
      "pages": 4750,
      "committed": 4751,
      "appeals": 4752,
      "caught": 4753,
      "peter": 4754,
      "maximum": 4755,
      "clim": 4756,
      "excess": 4757,
      "african": 4758,
      "entert": 4759,
      "favorite": 4760,
      "voltage": 4761,
      "##mas": 4762,
      "bell": 4763,
      "63": 4764,
      "?'": 4765,
      "diagnosis": 4766,
      "divided": 4767,
      "##osen": 4768,
      "cars": 4769,
      "67": 4770,
      "conversation": 4771,
      "seeking": 4772,
      "spoke": 4773,
      "update": 4774,
      "flight": 4775,
      "impossible": 4776,
      "cere": 4777,
      "bear": 4778,
      "highlight": 4779,
      "ken": 4780,
      "##oked": 4781,
      "prove": 4782,
      "argues": 4783,
      "##26": 4784,
      "examples": 4785,
      "africa": 4786,
      "dischar": 4787,
      "possibly": 4788,
      "bath": 4789,
      "##dy": 4790,
      "sole": 4791,
      "##enth": 4792,
      "listen": 4793,
      "alcohol": 4794,
      "existence": 4795,
      "##hy": 4796,
      "accom": 4797,
      "guil": 4798,
      "##rations": 4799,
      "suggests": 4800,
      "walking": 4801,
      "##comes": 4802,
      "##illed": 4803,
      "mun": 4804,
      "plants": 4805,
      "antib": 4806,
      "fer": 4807,
      "outcome": 4808,
      "emergency": 4809,
      "jesus": 4810,
      "native": 4811,
      "sweet": 4812,
      "rein": 4813,
      "sought": 4814,
      "aid": 4815,
      "florida": 4816,
      "crisis": 4817,
      "continues": 4818,
      "pitch": 4819,
      "##ania": 4820,
      "authors": 4821,
      "bridge": 4822,
      "identity": 4823,
      "employee": 4824,
      "##mark": 4825,
      "thro": 4826,
      "##zen": 4827,
      "practices": 4828,
      "##unction": 4829,
      "##29": 4830,
      "amazing": 4831,
      "##ander": 4832,
      "confirmed": 4833,
      "anx": 4834,
      "secure": 4835,
      "memor": 4836,
      "##),": 4837,
      "imagine": 4838,
      "muslim": 4839,
      "missing": 4840,
      "regions": 4841,
      "database": 4842,
      "capable": 4843,
      "recall": 4844,
      "##gs": 4845,
      "symb": 4846,
      "copy": 4847,
      "##21": 4848,
      "sides": 4849,
      "##greg": 4850,
      "appearance": 4851,
      "thoughts": 4852,
      "##ocy": 4853,
      "consistent": 4854,
      "indicated": 4855,
      "discrim": 4856,
      "tight": 4857,
      "pm": 4858,
      "increases": 4859,
      "editor": 4860,
      "los": 4861,
      "##kes": 4862,
      "shad": 4863,
      "biggest": 4864,
      "residents": 4865,
      "jurisdiction": 4866,
      "dress": 4867,
      "rough": 4868,
      "##time": 4869,
      "medicine": 4870,
      "ram": 4871,
      "perman": 4872,
      "##ilit": 4873,
      "boys": 4874,
      "accompl": 4875,
      "wouldn": 4876,
      "raise": 4877,
      "decide": 4878,
      "pool": 4879,
      "gree": 4880,
      "familiar": 4881,
      "pure": 4882,
      "1999": 4883,
      "85": 4884,
      "latter": 4885,
      "waste": 4886,
      "wear": 4887,
      "admitted": 4888,
      "'.": 4889,
      "##eds": 4890,
      "researchers": 4891,
      "articles": 4892,
      "measured": 4893,
      "publish": 4894,
      "guar": 4895,
      "collabor": 4896,
      "defe": 4897,
      "sister": 4898,
      "fees": 4899,
      "##ano": 4900,
      "cryst": 4901,
      "frequently": 4902,
      "diam": 4903,
      "organizations": 4904,
      "attacks": 4905,
      "transmission": 4906,
      "##ched": 4907,
      "##ona": 4908,
      "considering": 4909,
      "fighting": 4910,
      "fly": 4911,
      "silver": 4912,
      "guilty": 4913,
      "pieces": 4914,
      "##ondu": 4915,
      "wheel": 4916,
      "solutions": 4917,
      "##elines": 4918,
      "##iated": 4919,
      "mit": 4920,
      "funding": 4921,
      "broken": 4922,
      "##tic": 4923,
      "##inating": 4924,
      "depend": 4925,
      "dial": 4926,
      "merely": 4927,
      "##ple": 4928,
      "definitely": 4929,
      "##while": 4930,
      "carol": 4931,
      "obtain": 4932,
      "penn": 4933,
      "minimum": 4934,
      "leadership": 4935,
      "eu": 4936,
      "##erate": 4937,
      "route": 4938,
      "##do": 4939,
      "trig": 4940,
      "therm": 4941,
      "thor": 4942,
      "desire": 4943,
      "pad": 4944,
      "label": 4945,
      "prep": 4946,
      "alt": 4947,
      "recovery": 4948,
      "advice": 4949,
      "##kins": 4950,
      "##utely": 4951,
      "sounds": 4952,
      "matters": 4953,
      "row": 4954,
      "bone": 4955,
      "senate": 4956,
      "hem": 4957,
      "experiences": 4958,
      "##ota": 4959,
      "trees": 4960,
      "chicago": 4961,
      "ba": 4962,
      "ultimately": 4963,
      "responsibility": 4964,
      "lady": 4965,
      "##ns": 4966,
      "obvious": 4967,
      "shop": 4968,
      "coal": 4969,
      "infection": 4970,
      "leads": 4971,
      "distinct": 4972,
      "decades": 4973,
      "audience": 4974,
      "generated": 4975,
      "chain": 4976,
      "pictures": 4977,
      "formation": 4978,
      "determination": 4979,
      "##ciples": 4980,
      "walked": 4981,
      "samples": 4982,
      "francis": 4983,
      "homes": 4984,
      "suddenly": 4985,
      "##cipl": 4986,
      "##oned": 4987,
      "nov": 4988,
      "unre": 4989,
      "nurs": 4990,
      "occasion": 4991,
      "##rates": 4992,
      "industrial": 4993,
      "unable": 4994,
      "imper": 4995,
      "pulled": 4996,
      "##iform": 4997,
      "alleg": 4998,
      "inject": 4999,
      "patterns": 5000,
      "induced": 5001,
      "possess": 5002,
      "studied": 5003,
      "classes": 5004,
      "handle": 5005,
      "recording": 5006,
      "guarant": 5007,
      "74": 5008,
      "##lets": 5009,
      "concluded": 5010,
      "scan": 5011,
      "structures": 5012,
      "historical": 5013,
      "##orders": 5014,
      "honest": 5015,
      "hypoth": 5016,
      "profile": 5017,
      "provision": 5018,
      "##28": 5019,
      "fields": 5020,
      "gradu": 5021,
      "dar": 5022,
      "##ception": 5023,
      "photograph": 5024,
      "posted": 5025,
      "recognized": 5026,
      "##inent": 5027,
      "##what": 5028,
      "clients": 5029,
      "##inet": 5030,
      "lets": 5031,
      "##reh": 5032,
      "authorities": 5033,
      "##kn": 5034,
      "runs": 5035,
      "withd": 5036,
      "putting": 5037,
      "jim": 5038,
      "dangerous": 5039,
      "wealth": 5040,
      "telling": 5041,
      "charles": 5042,
      "encoun": 5043,
      "obviously": 5044,
      "mountain": 5045,
      "mine": 5046,
      "orders": 5047,
      "##ux": 5048,
      "flash": 5049,
      "69": 5050,
      "##col": 5051,
      "accepted": 5052,
      "narrow": 5053,
      "##che": 5054,
      "criter": 5055,
      "leaves": 5056,
      "horse": 5057,
      "exclus": 5058,
      "alg": 5059,
      "breath": 5060,
      "pharm": 5061,
      "##cel": 5062,
      "coord": 5063,
      "##gged": 5064,
      "explan": 5065,
      "##amin": 5066,
      "##how": 5067,
      "jones": 5068,
      "intention": 5069,
      "iraq": 5070,
      "1998": 5071,
      "rene": 5072,
      "sport": 5073,
      "independ": 5074,
      "##ado": 5075,
      "forest": 5076,
      "77": 5077,
      "tag": 5078,
      "owned": 5079,
      "winning": 5080,
      "##itis": 5081,
      "##any": 5082,
      "76": 5083,
      "##orters": 5084,
      "script": 5085,
      "newsp": 5086,
      "contained": 5087,
      "spending": 5088,
      "##retion": 5089,
      "anth": 5090,
      "examination": 5091,
      "68": 5092,
      "flag": 5093,
      "subsequent": 5094,
      "driven": 5095,
      "##house": 5096,
      "cogn": 5097,
      "##wide": 5098,
      "captain": 5099,
      "84": 5100,
      "motiv": 5101,
      "sets": 5102,
      "##ager": 5103,
      "employed": 5104,
      "understood": 5105,
      "helps": 5106,
      "comparison": 5107,
      "##inations": 5108,
      "penal": 5109,
      "corporation": 5110,
      "supporting": 5111,
      "confidence": 5112,
      "bol": 5113,
      "##igation": 5114,
      "evaluation": 5115,
      "demonstrated": 5116,
      "garden": 5117,
      "veter": 5118,
      "##ipping": 5119,
      "ta": 5120,
      "signals": 5121,
      "fluid": 5122,
      "humans": 5123,
      "originally": 5124,
      "insert": 5125,
      "atl": 5126,
      "relationships": 5127,
      "##vis": 5128,
      "noise": 5129,
      "definition": 5130,
      "profession": 5131,
      "extended": 5132,
      "cycle": 5133,
      "empt": 5134,
      "stret": 5135,
      "##alle": 5136,
      "schol": 5137,
      "steel": 5138,
      "##box": 5139,
      "warrant": 5140,
      "parli": 5141,
      "clint": 5142,
      "ash": 5143,
      "secondary": 5144,
      "procedures": 5145,
      "outcomes": 5146,
      "elev": 5147,
      "diab": 5148,
      "argued": 5149,
      "cloud": 5150,
      "##roph": 5151,
      "##zed": 5152,
      "religion": 5153,
      "expensive": 5154,
      "vacc": 5155,
      "depth": 5156,
      "businesses": 5157,
      "storm": 5158,
      "kitch": 5159,
      "##stre": 5160,
      "neck": 5161,
      "famous": 5162,
      "ven": 5163,
      "assault": 5164,
      "opportunities": 5165,
      "##see": 5166,
      "pc": 5167,
      "egg": 5168,
      "session": 5169,
      "ratio": 5170,
      "rare": 5171,
      "advoc": 5172,
      "##agon": 5173,
      "chronic": 5174,
      "##point": 5175,
      "##fe": 5176,
      "thread": 5177,
      "paris": 5178,
      "##ushing": 5179,
      "inqu": 5180,
      "advent": 5181,
      "##raw": 5182,
      "73": 5183,
      "hung": 5184,
      "189": 5185,
      "recru": 5186,
      "##________": 5187,
      "1997": 5188,
      "martin": 5189,
      "conscious": 5190,
      "sharp": 5191,
      "championship": 5192,
      "gent": 5193,
      "##osh": 5194,
      "mm": 5195,
      "lots": 5196,
      "exception": 5197,
      "##view": 5198,
      "shel": 5199,
      "fellow": 5200,
      "signs": 5201,
      "describe": 5202,
      "stars": 5203,
      "1996": 5204,
      "lee": 5205,
      "assistance": 5206,
      "##anda": 5207,
      "evolution": 5208,
      "schedul": 5209,
      "aspects": 5210,
      "clock": 5211,
      "adequ": 5212,
      "##sa": 5213,
      "superior": 5214,
      "liver": 5215,
      "ow": 5216,
      "fraud": 5217,
      "protocol": 5218,
      "plastic": 5219,
      "inner": 5220,
      "candidate": 5221,
      "yell": 5222,
      "typical": 5223,
      "cards": 5224,
      "corp": 5225,
      "##rine": 5226,
      "subs": 5227,
      "crew": 5228,
      "weapons": 5229,
      "banks": 5230,
      "teaching": 5231,
      "eastern": 5232,
      "##ml": 5233,
      "shift": 5234,
      "depending": 5235,
      "burden": 5236,
      "slowly": 5237,
      "##eff": 5238,
      "regulation": 5239,
      "indicate": 5240,
      "diseases": 5241,
      "eld": 5242,
      "weekend": 5243,
      "parliament": 5244,
      "emotional": 5245,
      "intel": 5246,
      "##ading": 5247,
      "presc": 5248,
      "valley": 5249,
      "dependent": 5250,
      "##ulf": 5251,
      "plays": 5252,
      "78": 5253,
      "##bre": 5254,
      "haw": 5255,
      "ital": 5256,
      "absor": 5257,
      "dollars": 5258,
      "debate": 5259,
      "damages": 5260,
      "##tes": 5261,
      "experiment": 5262,
      "journey": 5263,
      "turning": 5264,
      "stream": 5265,
      "##nam": 5266,
      "vess": 5267,
      "absolutely": 5268,
      "##wr": 5269,
      "infr": 5270,
      "arab": 5271,
      "absence": 5272,
      "adults": 5273,
      "regional": 5274,
      "whereas": 5275,
      "97": 5276,
      "linked": 5277,
      "##aph": 5278,
      "ancient": 5279,
      "twice": 5280,
      "positions": 5281,
      "gender": 5282,
      "##abilities": 5283,
      "episode": 5284,
      "earn": 5285,
      "##erved": 5286,
      "responses": 5287,
      "##road": 5288,
      "##roll": 5289,
      "##umps": 5290,
      "thousand": 5291,
      "accounts": 5292,
      "estimated": 5293,
      "trouble": 5294,
      "##rees": 5295,
      "sight": 5296,
      "networks": 5297,
      "letters": 5298,
      "larg": 5299,
      "writer": 5300,
      "domin": 5301,
      "ends": 5302,
      "advis": 5303,
      "thereby": 5304,
      "##bour": 5305,
      "offense": 5306,
      "##ario": 5307,
      "remark": 5308,
      "salt": 5309,
      "honor": 5310,
      "planned": 5311,
      "informed": 5312,
      "##ensions": 5313,
      "##arr": 5314,
      "opposite": 5315,
      "inher": 5316,
      "forget": 5317,
      "improvement": 5318,
      "....": 5319,
      "height": 5320,
      "intra": 5321,
      "na": 5322,
      "walls": 5323,
      "plain": 5324,
      "##erning": 5325,
      "urban": 5326,
      "moral": 5327,
      "soul": 5328,
      "buff": 5329,
      "ble": 5330,
      "jewish": 5331,
      "1995": 5332,
      "henry": 5333,
      "genes": 5334,
      "introduction": 5335,
      "##asp": 5336,
      "largely": 5337,
      "interact": 5338,
      "survival": 5339,
      "incred": 5340,
      "oce": 5341,
      "initially": 5342,
      "vul": 5343,
      "orient": 5344,
      "represented": 5345,
      "41": 5346,
      "attached": 5347,
      "jeff": 5348,
      "shif": 5349,
      "hero": 5350,
      "bodies": 5351,
      "collected": 5352,
      "nic": 5353,
      "detection": 5354,
      "buildings": 5355,
      "##rian": 5356,
      "##illing": 5357,
      "prol": 5358,
      "##ulating": 5359,
      "wing": 5360,
      "revers": 5361,
      "approved": 5362,
      "perspective": 5363,
      "repair": 5364,
      "vehicles": 5365,
      "institution": 5366,
      "hundreds": 5367,
      "ry": 5368,
      "desired": 5369,
      "rig": 5370,
      "sequence": 5371,
      "##ascular": 5372,
      "terr": 5373,
      "smooth": 5374,
      "unfortunately": 5375,
      "##usal": 5376,
      "tested": 5377,
      "powers": 5378,
      "79": 5379,
      "controls": 5380,
      "bomb": 5381,
      "resident": 5382,
      "neut": 5383,
      "statist": 5384,
      "sick": 5385,
      "##pass": 5386,
      "##enance": 5387,
      "compreh": 5388,
      "yield": 5389,
      "acting": 5390,
      "max": 5391,
      "magnetic": 5392,
      "remov": 5393,
      "principles": 5394,
      "discretion": 5395,
      "arbit": 5396,
      "accomp": 5397,
      "discovery": 5398,
      "divers": 5399,
      "wound": 5400,
      "coffee": 5401,
      "zone": 5402,
      "##icious": 5403,
      "##care": 5404,
      "pd": 5405,
      "soldiers": 5406,
      "##burg": 5407,
      "87": 5408,
      "williams": 5409,
      "tumor": 5410,
      "bio": 5411,
      "86": 5412,
      "1994": 5413,
      "intent": 5414,
      "chamber": 5415,
      "practical": 5416,
      "massive": 5417,
      "corporate": 5418,
      "transition": 5419,
      "achieved": 5420,
      "facilities": 5421,
      "##known": 5422,
      "arrest": 5423,
      "aside": 5424,
      "ah": 5425,
      "wasnt": 5426,
      "lip": 5427,
      "uniform": 5428,
      "closer": 5429,
      "##coming": 5430,
      "atm": 5431,
      "##kin": 5432,
      "helping": 5433,
      "96": 5434,
      "greatest": 5435,
      "##uls": 5436,
      "depression": 5437,
      "figures": 5438,
      "88": 5439,
      "electrical": 5440,
      "kitchen": 5441,
      "sum": 5442,
      "186": 5443,
      "##~~": 5444,
      "offering": 5445,
      "package": 5446,
      "violation": 5447,
      "wont": 5448,
      "##iot": 5449,
      "01": 5450,
      "genetic": 5451,
      "consideration": 5452,
      "filter": 5453,
      "worry": 5454,
      "experts": 5455,
      "unlike": 5456,
      "bought": 5457,
      "effectively": 5458,
      "tough": 5459,
      "scar": 5460,
      "stro": 5461,
      "pointed": 5462,
      "##athy": 5463,
      "tail": 5464,
      "ideal": 5465,
      "bush": 5466,
      "##pm": 5467,
      "exposed": 5468,
      "concerning": 5469,
      "03": 5470,
      "turns": 5471,
      "dram": 5472,
      "distingu": 5473,
      "mexico": 5474,
      "eating": 5475,
      "facility": 5476,
      "##ishing": 5477,
      "depos": 5478,
      "creation": 5479,
      "widely": 5480,
      "aircraft": 5481,
      "metab": 5482,
      "tas": 5483,
      "aftern": 5484,
      "##isted": 5485,
      "bob": 5486,
      "root": 5487,
      "sector": 5488,
      "##cop": 5489,
      "victims": 5490,
      "##rison": 5491,
      "canadian": 5492,
      "bid": 5493,
      "##ker": 5494,
      "alter": 5495,
      "##aks": 5496,
      "furn": 5497,
      "83": 5498,
      "contro": 5499,
      "selling": 5500,
      "default": 5501,
      "pone": 5502,
      "rend": 5503,
      "blind": 5504,
      "artist": 5505,
      "jul": 5506,
      "domestic": 5507,
      "##anta": 5508,
      "efficiency": 5509,
      "opposition": 5510,
      "strategies": 5511,
      "sheet": 5512,
      "##ogue": 5513,
      "refused": 5514,
      "frag": 5515,
      "tab": 5516,
      "concentration": 5517,
      "cm": 5518,
      "grew": 5519,
      "cu": 5520,
      "usual": 5521,
      "enemy": 5522,
      "instrument": 5523,
      "strike": 5524,
      "ga": 5525,
      "conviction": 5526,
      "##40": 5527,
      "listed": 5528,
      "##ya": 5529,
      "shooting": 5530,
      "##isters": 5531,
      "markets": 5532,
      "recip": 5533,
      "##ansion": 5534,
      "passing": 5535,
      "teacher": 5536,
      "governor": 5537,
      "usa": 5538,
      "##jud": 5539,
      "detailed": 5540,
      "engineering": 5541,
      "mechanisms": 5542,
      "enforcement": 5543,
      "battery": 5544,
      "muscle": 5545,
      "profit": 5546,
      "synd": 5547,
      "binding": 5548,
      "mixed": 5549,
      "magazine": 5550,
      "arts": 5551,
      "89": 5552,
      "phenom": 5553,
      "cod": 5554,
      "exclud": 5555,
      "enhance": 5556,
      "##eper": 5557,
      "##icate": 5558,
      "hence": 5559,
      "worst": 5560,
      "realized": 5561,
      "petitioner": 5562,
      "dropped": 5563,
      "bacter": 5564,
      "##iance": 5565,
      "efficient": 5566,
      "vice": 5567,
      "substrate": 5568,
      "planet": 5569,
      "ohio": 5570,
      "exists": 5571,
      "objective": 5572,
      "sustain": 5573,
      "sharing": 5574,
      "simpl": 5575,
      "voc": 5576,
      "welcome": 5577,
      "gaz": 5578,
      "teachers": 5579,
      "drag": 5580,
      "unknown": 5581,
      "fox": 5582,
      "##edy": 5583,
      "anyway": 5584,
      "400": 5585,
      "corresponding": 5586,
      "thirty": 5587,
      "christmas": 5588,
      "suc": 5589,
      "era": 5590,
      "##gets": 5591,
      "ampl": 5592,
      "loan": 5593,
      "tenn": 5594,
      "manif": 5595,
      "dad": 5596,
      "victory": 5597,
      "guidelines": 5598,
      "ny": 5599,
      "friendly": 5600,
      "##urally": 5601,
      "controvers": 5602,
      "protest": 5603,
      "governments": 5604,
      "chick": 5605,
      "##igen": 5606,
      "proteins": 5607,
      "1993": 5608,
      "150": 5609,
      "##uous": 5610,
      "conservative": 5611,
      "domain": 5612,
      "##exp": 5613,
      "chart": 5614,
      "regulations": 5615,
      "joy": 5616,
      "creative": 5617,
      "implementation": 5618,
      "##iate": 5619,
      "crowd": 5620,
      "1990": 5621,
      "##": 5622,
      "abst": 5623,
      "liberal": 5624,
      "obst": 5625,
      "interface": 5626,
      "##rants": 5627,
      "pump": 5628,
      "##stream": 5629,
      "hiv": 5630,
      "injuries": 5631,
      "vary": 5632,
      "##unte": 5633,
      "hid": 5634,
      "monitoring": 5635,
      "defect": 5636,
      "moon": 5637,
      "parameters": 5638,
      "##word": 5639,
      "crash": 5640,
      "theat": 5641,
      "twe": 5642,
      "retail": 5643,
      "somewhat": 5644,
      "involving": 5645,
      "principle": 5646,
      "nod": 5647,
      "potentially": 5648,
      "requirement": 5649,
      "##rain": 5650,
      "##orith": 5651,
      "1992": 5652,
      "sus": 5653,
      "##itud": 5654,
      "##cles": 5655,
      "paralle": 5656,
      "houses": 5657,
      "argue": 5658,
      "craft": 5659,
      "surf": 5660,
      "aband": 5661,
      "tells": 5662,
      "##rome": 5663,
      "household": 5664,
      "consumer": 5665,
      "commonly": 5666,
      "afternoon": 5667,
      "constitutional": 5668,
      "grade": 5669,
      "vast": 5670,
      "agric": 5671,
      "serving": 5672,
      "delivered": 5673,
      "virginia": 5674,
      "perce": 5675,
      "scientists": 5676,
      "conven": 5677,
      "plane": 5678,
      "zero": 5679,
      "algorith": 5680,
      "volunte": 5681,
      "conce": 5682,
      "surve": 5683,
      "criteria": 5684,
      "hole": 5685,
      "coupl": 5686,
      "##rum": 5687,
      "ari": 5688,
      "adopt": 5689,
      "##state": 5690,
      "##ras": 5691,
      "illegal": 5692,
      "plas": 5693,
      "##stein": 5694,
      "##rad": 5695,
      "##icul": 5696,
      "##amental": 5697,
      "gay": 5698,
      "uncle": 5699,
      "supra": 5700,
      "veget": 5701,
      "laid": 5702,
      "strange": 5703,
      "button": 5704,
      "facilit": 5705,
      "recommended": 5706,
      "##ressive": 5707,
      "clinton": 5708,
      "wonderful": 5709,
      "drawn": 5710,
      "labour": 5711,
      "stem": 5712,
      "suspect": 5713,
      "yellow": 5714,
      "93": 5715,
      "rely": 5716,
      "victor": 5717,
      "prohib": 5718,
      "##iety": 5719,
      "watched": 5720,
      "necessarily": 5721,
      "songs": 5722,
      "institutions": 5723,
      "##isher": 5724,
      "fifth": 5725,
      "##bal": 5726,
      "##igan": 5727,
      "sugar": 5728,
      "papers": 5729,
      "##oration": 5730,
      "ht": 5731,
      "##aneous": 5732,
      "##ih": 5733,
      "##haust": 5734,
      "alph": 5735,
      "increasingly": 5736,
      "sensitive": 5737,
      "clust": 5738,
      "youll": 5739,
      "##rick": 5740,
      "communications": 5741,
      "##rating": 5742,
      "extract": 5743,
      "agricult": 5744,
      "##rible": 5745,
      "engaged": 5746,
      "cav": 5747,
      "##utor": 5748,
      "virus": 5749,
      "bringing": 5750,
      "dogs": 5751,
      "additionally": 5752,
      "ourselves": 5753,
      "arrested": 5754,
      "habit": 5755,
      "limitations": 5756,
      "branch": 5757,
      "molecular": 5758,
      "fee": 5759,
      "nick": 5760,
      "bat": 5761,
      "unp": 5762,
      "relates": 5763,
      "scheme": 5764,
      "passion": 5765,
      "subsc": 5766,
      "##ructure": 5767,
      "98": 5768,
      "sha": 5769,
      "liability": 5770,
      "seconds": 5771,
      "immediate": 5772,
      "passeng": 5773,
      "04": 5774,
      "##rog": 5775,
      "causing": 5776,
      "trials": 5777,
      "consequences": 5778,
      "##neys": 5779,
      "infect": 5780,
      "paying": 5781,
      "surprise": 5782,
      "suffered": 5783,
      "mainly": 5784,
      "underlying": 5785,
      "examined": 5786,
      "##ses": 5787,
      "fo": 5788,
      "##standing": 5789,
      "virtual": 5790,
      "younger": 5791,
      "deploy": 5792,
      "symbol": 5793,
      "desk": 5794,
      "instructions": 5795,
      "##iac": 5796,
      "dinner": 5797,
      "primarily": 5798,
      "carrying": 5799,
      "feels": 5800,
      "limits": 5801,
      "similarly": 5802,
      "democrats": 5803,
      "94": 5804,
      "boat": 5805,
      "oral": 5806,
      "occurs": 5807,
      "manufacturing": 5808,
      "starts": 5809,
      "supplement": 5810,
      "cos": 5811,
      "revenue": 5812,
      "renew": 5813,
      "fundamental": 5814,
      "##pet": 5815,
      "streets": 5816,
      "charl": 5817,
      "crack": 5818,
      "noticed": 5819,
      "instruct": 5820,
      "wine": 5821,
      "academic": 5822,
      "steph": 5823,
      "resulted": 5824,
      "sher": 5825,
      "roman": 5826,
      "solar": 5827,
      "classic": 5828,
      "tall": 5829,
      "##atures": 5830,
      "chosen": 5831,
      "mike": 5832,
      "valu": 5833,
      "entertain": 5834,
      "1991": 5835,
      "reporting": 5836,
      "##esth": 5837,
      "trick": 5838,
      "##inity": 5839,
      "discipl": 5840,
      "candidates": 5841,
      "##pes": 5842,
      "fabric": 5843,
      "188": 5844,
      "exhaust": 5845,
      "launched": 5846,
      "imaging": 5847,
      "##gers": 5848,
      "51": 5849,
      "##chem": 5850,
      "relation": 5851,
      "ride": 5852,
      "tort": 5853,
      "attempts": 5854,
      "align": 5855,
      "technologies": 5856,
      "organic": 5857,
      "cutting": 5858,
      "publication": 5859,
      "##cin": 5860,
      "succeed": 5861,
      "protected": 5862,
      "interpretation": 5863,
      "interaction": 5864,
      "neur": 5865,
      "artists": 5866,
      "marked": 5867,
      "adopted": 5868,
      "##outs": 5869,
      "emphasis": 5870,
      "theor": 5871,
      "britain": 5872,
      "proceedings": 5873,
      "elected": 5874,
      "##rid": 5875,
      "degrees": 5876,
      "regardless": 5877,
      "density": 5878,
      "approaches": 5879,
      "realize": 5880,
      "presum": 5881,
      "bankrupt": 5882,
      "hurt": 5883,
      "accurate": 5884,
      "hat": 5885,
      "##etes": 5886,
      "weve": 5887,
      "picked": 5888,
      "framework": 5889,
      "possession": 5890,
      "##acle": 5891,
      "conclude": 5892,
      "studio": 5893,
      "187": 5894,
      "wearing": 5895,
      "ruling": 5896,
      "enterpr": 5897,
      "\")": 5898,
      "queen": 5899,
      "##ypt": 5900,
      "plenty": 5901,
      "resource": 5902,
      "integrated": 5903,
      "australian": 5904,
      "##ura": 5905,
      "bull": 5906,
      "##ola": 5907,
      "sacr": 5908,
      "harv": 5909,
      "instruction": 5910,
      "maintenance": 5911,
      "cort": 5912,
      "##lands": 5913,
      "##icide": 5914,
      "sorry": 5915,
      "reducing": 5916,
      "array": 5917,
      "angeles": 5918,
      "##soft": 5919,
      "recognition": 5920,
      "evil": 5921,
      "##ella": 5922,
      "stack": 5923,
      "faster": 5924,
      "##2x": 5925,
      "meat": 5926,
      "##ighter": 5927,
      "##agues": 5928,
      "\\'": 5929,
      "schedule": 5930,
      "suitable": 5931,
      "surrounding": 5932,
      "##rect": 5933,
      "##rete": 5934,
      "administrative": 5935,
      "arguments": 5936,
      "##ray": 5937,
      "terminal": 5938,
      "%,": 5939,
      "permanent": 5940,
      "##uge": 5941,
      "voters": 5942,
      "millions": 5943,
      "smile": 5944,
      "escape": 5945,
      "represents": 5946,
      "joseph": 5947,
      "##ertain": 5948,
      "goods": 5949,
      "milk": 5950,
      "closely": 5951,
      "wer": 5952,
      "donald": 5953,
      "aggress": 5954,
      "120": 5955,
      "consumption": 5956,
      "license": 5957,
      "##ita": 5958,
      "##ifications": 5959,
      "##yth": 5960,
      "seriously": 5961,
      "##icity": 5962,
      "##orted": 5963,
      "principal": 5964,
      "prompt": 5965,
      "nan": 5966,
      "percentage": 5967,
      "##ada": 5968,
      "essentially": 5969,
      "empty": 5970,
      "magic": 5971,
      "trigger": 5972,
      "edition": 5973,
      "##abled": 5974,
      "nas": 5975,
      "facing": 5976,
      "gap": 5977,
      "illness": 5978,
      "removal": 5979,
      "consent": 5980,
      "assistant": 5981,
      "deaths": 5982,
      "ske": 5983,
      "comfortable": 5984,
      "bost": 5985,
      "oxy": 5986,
      "dear": 5987,
      "cub": 5988,
      "##pat": 5989,
      "##place": 5990,
      "beauty": 5991,
      "##umin": 5992,
      "derived": 5993,
      "taxes": 5994,
      "partnership": 5995,
      "knock": 5996,
      "ly": 5997,
      "neighborhood": 5998,
      "lung": 5999,
      "##ket": 6000,
      "ment": 6001,
      "dun": 6002,
      "decade": 6003,
      "pak": 6004,
      "vert": 6005,
      "joe": 6006,
      "jav": 6007,
      "cow": 6008,
      "suffering": 6009,
      "haven": 6010,
      "horiz": 6011,
      "settlement": 6012,
      "tap": 6013,
      "catholic": 6014,
      "dose": 6015,
      "##here": 6016,
      "toler": 6017,
      "egypt": 6018,
      "restaurant": 6019,
      "hind": 6020,
      "replaced": 6021,
      "kingdom": 6022,
      "##racy": 6023,
      "whats": 6024,
      "convin": 6025,
      "##attle": 6026,
      "meanwhile": 6027,
      "assets": 6028,
      "grounds": 6029,
      "exceed": 6030,
      "provisions": 6031,
      "grown": 6032,
      "variable": 6033,
      "jon": 6034,
      "##don": 6035,
      "##oly": 6036,
      "formal": 6037,
      "assume": 6038,
      "answers": 6039,
      "confirm": 6040,
      "hate": 6041,
      "vib": 6042,
      "confident": 6043,
      "membr": 6044,
      "prejud": 6045,
      "accompan": 6046,
      "##onym": 6047,
      "##irable": 6048,
      "reviews": 6049,
      "format": 6050,
      "athlet": 6051,
      "manufactur": 6052,
      "taste": 6053,
      "ocean": 6054,
      "killing": 6055,
      "representative": 6056,
      "whis": 6057,
      "accused": 6058,
      "##hi": 6059,
      "finds": 6060,
      "spanish": 6061,
      "basically": 6062,
      "heads": 6063,
      "affairs": 6064,
      "normally": 6065,
      "legislation": 6066,
      "09": 6067,
      "golden": 6068,
      "jackson": 6069,
      "festival": 6070,
      "audio": 6071,
      "posts": 6072,
      "relax": 6073,
      "rush": 6074,
      "sensit": 6075,
      "stable": 6076,
      "pig": 6077,
      "wis": 6078,
      "gift": 6079,
      "##lines": 6080,
      "surgical": 6081,
      "shell": 6082,
      "blow": 6083,
      "##ommod": 6084,
      "submitted": 6085,
      "extreme": 6086,
      "##lers": 6087,
      "troops": 6088,
      "demonstrate": 6089,
      "doctors": 6090,
      "variables": 6091,
      "##iciently": 6092,
      "totally": 6093,
      "scores": 6094,
      "messages": 6095,
      "daniel": 6096,
      "1989": 6097,
      "scot": 6098,
      "payments": 6099,
      "##cell": 6100,
      "scr": 6101,
      "grab": 6102,
      "brad": 6103,
      "gear": 6104,
      "inflamm": 6105,
      "];": 6106,
      "##raction": 6107,
      "##oh": 6108,
      "proud": 6109,
      "georg": 6110,
      "##ami": 6111,
      "stores": 6112,
      "disag": 6113,
      "##ingly": 6114,
      "founded": 6115,
      "philosophy": 6116,
      "invas": 6117,
      "##ateral": 6118,
      "narr": 6119,
      "kinds": 6120,
      "cann": 6121,
      "infrast": 6122,
      "accommod": 6123,
      "disappear": 6124,
      "acknowled": 6125,
      "broadcast": 6126,
      "spin": 6127,
      "infer": 6128,
      "identification": 6129,
      "announce": 6130,
      "biological": 6131,
      "##icing": 6132,
      ".]": 6133,
      "recognize": 6134,
      "flav": 6135,
      "appelle": 6136,
      "##ache": 6137,
      "remote": 6138,
      "##ini": 6139,
      "carefully": 6140,
      "faces": 6141,
      "feedback": 6142,
      "tables": 6143,
      "equival": 6144,
      "tea": 6145,
      "rear": 6146,
      "//": 6147,
      "ic": 6148,
      "begins": 6149,
      "shoulder": 6150,
      "broke": 6151,
      "acute": 6152,
      "faced": 6153,
      "proposal": 6154,
      "readers": 6155,
      "##arks": 6156,
      "amounts": 6157,
      "encourage": 6158,
      "losing": 6159,
      "lean": 6160,
      "okay": 6161,
      "1983": 6162,
      "cree": 6163,
      "08": 6164,
      "chest": 6165,
      "forming": 6166,
      "arter": 6167,
      "assigned": 6168,
      "determining": 6169,
      "##ishment": 6170,
      "airport": 6171,
      "promote": 6172,
      "teen": 6173,
      "tank": 6174,
      "!!": 6175,
      "experimental": 6176,
      "composition": 6177,
      "dust": 6178,
      "taught": 6179,
      "promise": 6180,
      "locations": 6181,
      "compensation": 6182,
      "ros": 6183,
      "apartment": 6184,
      "mechanical": 6185,
      "intellect": 6186,
      "stored": 6187,
      "attempted": 6188,
      "appellants": 6189,
      "situations": 6190,
      "mg": 6191,
      "flood": 6192,
      "##ruption": 6193,
      "jr": 6194,
      "fruit": 6195,
      "dynamic": 6196,
      "##alf": 6197,
      "],[@": 6198,
      "deput": 6199,
      "holy": 6200,
      "ire": 6201,
      "dur": 6202,
      "07": 6203,
      "dc": 6204,
      "plural": 6205,
      "pursuant": 6206,
      "dub": 6207,
      "spiritual": 6208,
      "lies": 6209,
      "parallel": 6210,
      "glad": 6211,
      "tan": 6212,
      "##emat": 6213,
      "disorder": 6214,
      "topic": 6215,
      "##theless": 6216,
      "supports": 6217,
      "##oral": 6218,
      "agencies": 6219,
      "gam": 6220,
      "##aine": 6221,
      "microsoft": 6222,
      "extension": 6223,
      "spons": 6224,
      "rab": 6225,
      "generate": 6226,
      "explore": 6227,
      "legs": 6228,
      "finger": 6229,
      "fault": 6230,
      "spokes": 6231,
      "sov": 6232,
      "phosph": 6233,
      "boston": 6234,
      "contrary": 6235,
      "##zym": 6236,
      "columb": 6237,
      "crypt": 6238,
      "aren": 6239,
      "roof": 6240,
      "declar": 6241,
      "retire": 6242,
      "nevertheless": 6243,
      "##oul": 6244,
      "accel": 6245,
      "##ums": 6246,
      "arth": 6247,
      "happening": 6248,
      "beer": 6249,
      "excited": 6250,
      "appointed": 6251,
      "##etry": 6252,
      "producing": 6253,
      "preval": 6254,
      "##cers": 6255,
      "vulner": 6256,
      "##rich": 6257,
      "dedicated": 6258,
      "italian": 6259,
      "##rd": 6260,
      "##rel": 6261,
      "##illa": 6262,
      "rising": 6263,
      "armed": 6264,
      "raw": 6265,
      "involves": 6266,
      "describes": 6267,
      "alive": 6268,
      "resid": 6269,
      "expansion": 6270,
      "wash": 6271,
      "settings": 6272,
      "asc": 6273,
      "laser": 6274,
      "gon": 6275,
      "##ints": 6276,
      "auto": 6277,
      "=========": 6278,
      "feelings": 6279,
      "preced": 6280,
      "##rix": 6281,
      "1988": 6282,
      "saint": 6283,
      "gang": 6284,
      "##oom": 6285,
      "enable": 6286,
      "requested": 6287,
      "declared": 6288,
      "explanation": 6289,
      "##win": 6290,
      "grass": 6291,
      "tu": 6292,
      "ech": 6293,
      "sensor": 6294,
      "tub": 6295,
      "operate": 6296,
      "---": 6297,
      "##bles": 6298,
      "dance": 6299,
      "moments": 6300,
      "treas": 6301,
      "favour": 6302,
      "sections": 6303,
      "fairly": 6304,
      "pilot": 6305,
      "educational": 6306,
      "##ostic": 6307,
      "rational": 6308,
      "https": 6309,
      "cable": 6310,
      "##asy": 6311,
      "##....": 6312,
      "strongly": 6313,
      "06": 6314,
      "##riers": 6315,
      "tasks": 6316,
      "invent": 6317,
      "unus": 6318,
      "matt": 6319,
      "##lock": 6320,
      "privacy": 6321,
      "##itative": 6322,
      "##een": 6323,
      "performing": 6324,
      "yester": 6325,
      "consumers": 6326,
      "drawing": 6327,
      "privile": 6328,
      "extensive": 6329,
      "chris": 6330,
      "##bel": 6331,
      "healthcare": 6332,
      "struggle": 6333,
      "##anes": 6334,
      "republicans": 6335,
      "distur": 6336,
      "##water": 6337,
      "gentle": 6338,
      "dw": 6339,
      "infrastructure": 6340,
      "subsequently": 6341,
      "opposed": 6342,
      "strict": 6343,
      "contempor": 6344,
      "decrease": 6345,
      "surprised": 6346,
      "approval": 6347,
      "coh": 6348,
      "##iatric": 6349,
      "cognitive": 6350,
      "##ibilities": 6351,
      "presidential": 6352,
      "somewhere": 6353,
      "##ocation": 6354,
      "conspir": 6355,
      "bigger": 6356,
      "scope": 6357,
      "awards": 6358,
      "bil": 6359,
      "retro": 6360,
      "universe": 6361,
      "stead": 6362,
      "breach": 6363,
      "##under": 6364,
      "breaking": 6365,
      "addressed": 6366,
      "substance": 6367,
      "##omic": 6368,
      "wet": 6369,
      "proved": 6370,
      "anxiety": 6371,
      "##areness": 6372,
      "dys": 6373,
      "surprising": 6374,
      "successfully": 6375,
      "##essions": 6376,
      "fet": 6377,
      "andrew": 6378,
      "risks": 6379,
      "warning": 6380,
      "simult": 6381,
      "lights": 6382,
      "conclus": 6383,
      "weapon": 6384,
      "jac": 6385,
      "phr": 6386,
      "talked": 6387,
      "##eding": 6388,
      "palest": 6389,
      "impair": 6390,
      "angle": 6391,
      "ministry": 6392,
      "vel": 6393,
      "jail": 6394,
      "affirm": 6395,
      "anticip": 6396,
      "tiny": 6397,
      "##zing": 6398,
      "apparent": 6399,
      "returns": 6400,
      "##gra": 6401,
      "carolina": 6402,
      "preferred": 6403,
      "stan": 6404,
      "soil": 6405,
      "oppon": 6406,
      "radi": 6407,
      "prince": 6408,
      "cyt": 6409,
      "##opl": 6410,
      "valuable": 6411,
      "holds": 6412,
      "falls": 6413,
      "##iture": 6414,
      "withdraw": 6415,
      "reviewed": 6416,
      "split": 6417,
      "elections": 6418,
      "nit": 6419,
      "detected": 6420,
      "till": 6421,
      "bru": 6422,
      "awareness": 6423,
      "brothers": 6424,
      "diabetes": 6425,
      "cf": 6426,
      "##utory": 6427,
      "##play": 6428,
      "answered": 6429,
      "corn": 6430,
      "bowl": 6431,
      "##tle": 6432,
      "passage": 6433,
      "personally": 6434,
      "buying": 6435,
      "brings": 6436,
      "immigration": 6437,
      "rent": 6438,
      "transportation": 6439,
      "##osphere": 6440,
      "yeah": 6441,
      "##erves": 6442,
      "%.": 6443,
      "mortality": 6444,
      "videos": 6445,
      "cp": 6446,
      "traum": 6447,
      "landsc": 6448,
      "tact": 6449,
      "1986": 6450,
      "fuck": 6451,
      "##ifies": 6452,
      "tip": 6453,
      "stands": 6454,
      "android": 6455,
      "1st": 6456,
      "##raid": 6457,
      "marsh": 6458,
      "plot": 6459,
      "discharge": 6460,
      "##xture": 6461,
      "radical": 6462,
      "universal": 6463,
      "wars": 6464,
      "logic": 6465,
      "semic": 6466,
      "drivers": 6467,
      "duration": 6468,
      "##ching": 6469,
      "##tr": 6470,
      "besides": 6471,
      "peak": 6472,
      "radiation": 6473,
      "linear": 6474,
      "somehow": 6475,
      "inspired": 6476,
      "machines": 6477,
      "hidden": 6478,
      "##ani": 6479,
      "##asts": 6480,
      "evol": 6481,
      "shares": 6482,
      "purs": 6483,
      "##west": 6484,
      "compare": 6485,
      "acquired": 6486,
      "trading": 6487,
      "permit": 6488,
      "##can": 6489,
      "rar": 6490,
      "ingr": 6491,
      "clothes": 6492,
      "frust": 6493,
      "struck": 6494,
      "lew": 6495,
      "skill": 6496,
      "##itals": 6497,
      "aer": 6498,
      "tod": 6499,
      "oxygen": 6500,
      "visible": 6501,
      "lym": 6502,
      "trained": 6503,
      "nearby": 6504,
      "fi": 6505,
      "depends": 6506,
      "kel": 6507,
      "##apeut": 6508,
      "continuous": 6509,
      "~~~": 6510,
      "hack": 6511,
      "02": 6512,
      "rooms": 6513,
      "1987": 6514,
      "dealing": 6515,
      "worlds": 6516,
      "examine": 6517,
      "combat": 6518,
      "indicates": 6519,
      "disappoint": 6520,
      "##ico": 6521,
      "moth": 6522,
      "toxic": 6523,
      "automatically": 6524,
      "replied": 6525,
      "bure": 6526,
      "accuracy": 6527,
      "##ications": 6528,
      "refuge": 6529,
      "bankruptcy": 6530,
      "disorders": 6531,
      "difficulty": 6532,
      "verd": 6533,
      "oly": 6534,
      "tone": 6535,
      "evaluate": 6536,
      "equally": 6537,
      "1985": 6538,
      "empire": 6539,
      "ordinary": 6540,
      "rum": 6541,
      "outer": 6542,
      "az": 6543,
      "butter": 6544,
      "legit": 6545,
      "##ologist": 6546,
      "rural": 6547,
      "theme": 6548,
      "##ansas": 6549,
      "##ensus": 6550,
      "##inson": 6551,
      "investigate": 6552,
      "ongoing": 6553,
      "fred": 6554,
      "tube": 6555,
      "##coin": 6556,
      "4th": 6557,
      "##...": 6558,
      "measurement": 6559,
      "pushed": 6560,
      "yesterday": 6561,
      "immune": 6562,
      "define": 6563,
      "doors": 6564,
      "helpful": 6565,
      "reverse": 6566,
      "errors": 6567,
      "beam": 6568,
      "sed": 6569,
      "nobody": 6570,
      "tay": 6571,
      "basket": 6572,
      "employer": 6573,
      "maintained": 6574,
      "##rition": 6575,
      "perfectly": 6576,
      "pacific": 6577,
      "braz": 6578,
      "cheap": 6579,
      "##cher": 6580,
      "installed": 6581,
      "ethn": 6582,
      "elig": 6583,
      "1984": 6584,
      "rapidly": 6585,
      "squad": 6586,
      "experiments": 6587,
      "ml": 6588,
      "bern": 6589,
      "##33": 6590,
      "neglig": 6591,
      "brows": 6592,
      "regist": 6593,
      "afraid": 6594,
      "modified": 6595,
      "intr": 6596,
      "stab": 6597,
      "cn": 6598,
      "busy": 6599,
      "interior": 6600,
      "substit": 6601,
      "soph": 6602,
      "##ike": 6603,
      "decreased": 6604,
      "asia": 6605,
      "mile": 6606,
      "##owed": 6607,
      "kil": 6608,
      "aged": 6609,
      "##ugh": 6610,
      "trend": 6611,
      "telephone": 6612,
      "anywhere": 6613,
      "responded": 6614,
      "writers": 6615,
      "##ws": 6616,
      "syndrome": 6617,
      "kim": 6618,
      "olymp": 6619,
      "municip": 6620,
      "colour": 6621,
      "contribute": 6622,
      "applicable": 6623,
      "shaped": 6624,
      "kiss": 6625,
      "chrom": 6626,
      "missed": 6627,
      "chairman": 6628,
      "fasc": 6629,
      "ireland": 6630,
      "fired": 6631,
      "allegations": 6632,
      "manip": 6633,
      "lt": 6634,
      "personnel": 6635,
      "##aneously": 6636,
      "flying": 6637,
      "pakistan": 6638,
      "##uts": 6639,
      "lev": 6640,
      "crystal": 6641,
      "##iger": 6642,
      "##ala": 6643,
      "gray": 6644,
      "unw": 6645,
      "participate": 6646,
      "coron": 6647,
      "##rey": 6648,
      "newly": 6649,
      "110": 6650,
      "moves": 6651,
      "amazon": 6652,
      "drinking": 6653,
      "substantially": 6654,
      "movies": 6655,
      "lawyer": 6656,
      "marks": 6657,
      "lam": 6658,
      "transaction": 6659,
      "valve": 6660,
      "mayor": 6661,
      "italy": 6662,
      "bread": 6663,
      "commitment": 6664,
      "hardly": 6665,
      "davis": 6666,
      "architecture": 6667,
      "##e2x": 6668,
      "presentation": 6669,
      "continuing": 6670,
      "##istent": 6671,
      "##po": 6672,
      "fu": 6673,
      "versus": 6674,
      "discrimination": 6675,
      "ward": 6676,
      "lunch": 6677,
      "confront": 6678,
      "rejected": 6679,
      "stimul": 6680,
      "investors": 6681,
      "judicial": 6682,
      "##inn": 6683,
      "lens": 6684,
      "screening": 6685,
      "##antly": 6686,
      "analyses": 6687,
      "##fri": 6688,
      "grace": 6689,
      "nur": 6690,
      "explicit": 6691,
      "##ird": 6692,
      "##bar": 6693,
      "-----------------": 6694,
      "korea": 6695,
      "##eld": 6696,
      "laboratory": 6697,
      "elder": 6698,
      "compli": 6699,
      "falling": 6700,
      "decline": 6701,
      "##with": 6702,
      "2020": 6703,
      "organized": 6704,
      "academy": 6705,
      "##iana": 6706,
      "prepare": 6707,
      "swim": 6708,
      "newspaper": 6709,
      "##ghan": 6710,
      "injured": 6711,
      "dynam": 6712,
      "giant": 6713,
      "configuration": 6714,
      "apps": 6715,
      "##har": 6716,
      "1980": 6717,
      "##night": 6718,
      "whenever": 6719,
      "##x9": 6720,
      "semicondu": 6721,
      "absolute": 6722,
      "layers": 6723,
      "jews": 6724,
      "enzym": 6725,
      "mounted": 6726,
      "guns": 6727,
      "72": 6728,
      "teeth": 6729,
      "suffer": 6730,
      "haz": 6731,
      "bureau": 6732,
      "silence": 6733,
      "epid": 6734,
      "blocks": 6735,
      "##hr": 6736,
      "##utation": 6737,
      "accum": 6738,
      "categories": 6739,
      "attended": 6740,
      "negoti": 6741,
      "believes": 6742,
      "innoc": 6743,
      "liked": 6744,
      "francisco": 6745,
      "reliable": 6746,
      "structural": 6747,
      "myst": 6748,
      "requiring": 6749,
      "##aver": 6750,
      "##34": 6751,
      "##asm": 6752,
      "inspir": 6753,
      "particles": 6754,
      "-----": 6755,
      "pix": 6756,
      "representation": 6757,
      "yards": 6758,
      "soviet": 6759,
      "dil": 6760,
      "nam": 6761,
      "capture": 6762,
      "hardware": 6763,
      "md": 6764,
      "proportion": 6765,
      "lob": 6766,
      "180": 6767,
      "reaching": 6768,
      "interactions": 6769,
      "stages": 6770,
      "calculated": 6771,
      "bird": 6772,
      "applying": 6773,
      "bless": 6774,
      "62": 6775,
      "\"\"": 6776,
      "advertise": 6777,
      "##va": 6778,
      "plasma": 6779,
      "parking": 6780,
      "meetings": 6781,
      "enjoyed": 6782,
      "wilson": 6783,
      "au": 6784,
      "##ato": 6785,
      "cream": 6786,
      "chose": 6787,
      "mice": 6788,
      "##otherapy": 6789,
      "fulf": 6790,
      "orth": 6791,
      "counts": 6792,
      "behalf": 6793,
      "fingers": 6794,
      "carrier": 6795,
      "##uct": 6796,
      "node": 6797,
      "##fs": 6798,
      "behaviour": 6799,
      "zeal": 6800,
      "parad": 6801,
      "tack": 6802,
      "rog": 6803,
      "enth": 6804,
      "mirror": 6805,
      "##angers": 6806,
      "irish": 6807,
      "finance": 6808,
      "birds": 6809,
      "populations": 6810,
      "campus": 6811,
      "shortly": 6812,
      "brew": 6813,
      "closing": 6814,
      "##ulin": 6815,
      "##inder": 6816,
      "equivalent": 6817,
      "lymph": 6818,
      "michigan": 6819,
      "sty": 6820,
      "##enna": 6821,
      "##emic": 6822,
      "carl": 6823,
      "complicated": 6824,
      "investigated": 6825,
      "##35": 6826,
      "statutory": 6827,
      "registered": 6828,
      "genu": 6829,
      "##icon": 6830,
      "foods": 6831,
      "##inals": 6832,
      "assessed": 6833,
      "dipl": 6834,
      "wra": 6835,
      "inquir": 6836,
      "everybody": 6837,
      "##hs": 6838,
      "##town": 6839,
      "ariz": 6840,
      "##grad": 6841,
      "stability": 6842,
      "authent": 6843,
      "vital": 6844,
      "prevention": 6845,
      "trem": 6846,
      "smoking": 6847,
      "steve": 6848,
      "witnesses": 6849,
      "entr": 6850,
      "ceo": 6851,
      "drew": 6852,
      "mold": 6853,
      "hide": 6854,
      "pert": 6855,
      "disclosed": 6856,
      "brook": 6857,
      "entertainment": 6858,
      "adequate": 6859,
      "crimes": 6860,
      "##000": 6861,
      "considerable": 6862,
      "kin": 6863,
      "blank": 6864,
      "ingred": 6865,
      "cord": 6866,
      "thresh": 6867,
      "hay": 6868,
      "participation": 6869,
      "beta": 6870,
      "channels": 6871,
      "scheduled": 6872,
      "phenomen": 6873,
      "reward": 6874,
      "wake": 6875,
      "fiber": 6876,
      "dismissed": 6877,
      "updated": 6878,
      "sensitivity": 6879,
      "cin": 6880,
      "gi": 6881,
      "targets": 6882,
      "purchased": 6883,
      "forgot": 6884,
      "embra": 6885,
      "embod": 6886,
      "##sen": 6887,
      "cited": 6888,
      "therapeut": 6889,
      "smoke": 6890,
      "##36": 6891,
      "odd": 6892,
      "250": 6893,
      "boost": 6894,
      "reader": 6895,
      "##uana": 6896,
      "circle": 6897,
      "analog": 6898,
      "explos": 6899,
      "bron": 6900,
      "guit": 6901,
      "ultimate": 6902,
      "jersey": 6903,
      "naturally": 6904,
      "explo": 6905,
      "evaluated": 6906,
      "constantly": 6907,
      "##gging": 6908,
      "democracy": 6909,
      "ships": 6910,
      "musical": 6911,
      "deliber": 6912,
      "##car": 6913,
      "comprehensive": 6914,
      "threshold": 6915,
      "cs": 6916,
      "grav": 6917,
      "violent": 6918,
      "pleasure": 6919,
      "islam": 6920,
      "##ictions": 6921,
      "por": 6922,
      "##gb": 6923,
      "##isms": 6924,
      "temporary": 6925,
      "careful": 6926,
      "copyr": 6927,
      "mere": 6928,
      "uncertain": 6929,
      "roles": 6930,
      "programming": 6931,
      "rib": 6932,
      "miller": 6933,
      "arranged": 6934,
      "distributed": 6935,
      "loud": 6936,
      "##jo": 6937,
      "mask": 6938,
      "scholars": 6939,
      "##ipher": 6940,
      "improving": 6941,
      "brazil": 6942,
      "preparation": 6943,
      "choices": 6944,
      "swed": 6945,
      "psychological": 6946,
      "talks": 6947,
      "infant": 6948,
      "sd": 6949,
      "isolated": 6950,
      "##ora": 6951,
      "lap": 6952,
      "sevent": 6953,
      "chip": 6954,
      "movements": 6955,
      "manifest": 6956,
      "extend": 6957,
      "tips": 6958,
      "##after": 6959,
      "shield": 6960,
      "serves": 6961,
      "##cos": 6962,
      "##irect": 6963,
      "##bridge": 6964,
      "involvement": 6965,
      "##part": 6966,
      "185": 6967,
      "crown": 6968,
      "##mond": 6969,
      "forec": 6970,
      "transpar": 6971,
      "returning": 6972,
      "upgr": 6973,
      "61": 6974,
      "boss": 6975,
      "cock": 6976,
      "pier": 6977,
      "##omatic": 6978,
      "listening": 6979,
      "verdict": 6980,
      "settled": 6981,
      "ron": 6982,
      "gest": 6983,
      "alpha": 6984,
      "##eller": 6985,
      "tel": 6986,
      "##45": 6987,
      "thorough": 6988,
      "childhood": 6989,
      "territ": 6990,
      "professionals": 6991,
      "developers": 6992,
      "waters": 6993,
      "inch": 6994,
      "1982": 6995,
      "##bled": 6996,
      "providers": 6997,
      "sessions": 6998,
      "##ules": 6999,
      "##whel": 7000,
      "##etical": 7001,
      "requests": 7002,
      "territory": 7003,
      "hadn": 7004,
      "myth": 7005,
      "semiconductor": 7006,
      "##anges": 7007,
      "hors": 7008,
      "centers": 7009,
      "mol": 7010,
      "evident": 7011,
      "statistics": 7012,
      "crucial": 7013,
      "##inois": 7014,
      "##e2x80": 7015,
      "loop": 7016,
      "##ek": 7017,
      "youve": 7018,
      "pregnancy": 7019,
      "bench": 7020,
      "spat": 7021,
      "crazy": 7022,
      "##ylv": 7023,
      "navy": 7024,
      "expenses": 7025,
      "assumed": 7026,
      "colors": 7027,
      "headed": 7028,
      "awarded": 7029,
      "visited": 7030,
      "demands": 7031,
      "ages": 7032,
      "plug": 7033,
      "pod": 7034,
      "holiday": 7035,
      "dispute": 7036,
      "##iest": 7037,
      "sab": 7038,
      "partial": 7039,
      "disagree": 7040,
      "trav": 7041,
      "nerv": 7042,
      "facult": 7043,
      "deeply": 7044,
      "cig": 7045,
      "gm": 7046,
      "##fast": 7047,
      "##ribed": 7048,
      "ib": 7049,
      "judges": 7050,
      "##cia": 7051,
      "greek": 7052,
      "hang": 7053,
      "segment": 7054,
      "##iro": 7055,
      "##fall": 7056,
      "##fa": 7057,
      "contracts": 7058,
      "merch": 7059,
      "earned": 7060,
      "surge": 7061,
      "imposed": 7062,
      "deputy": 7063,
      "lux": 7064,
      "activation": 7065,
      "##ijuana": 7066,
      "mortg": 7067,
      "plurality": 7068,
      "destroyed": 7069,
      "##eto": 7070,
      "uncom": 7071,
      "founder": 7072,
      "sending": 7073,
      "operated": 7074,
      "competitive": 7075,
      "contends": 7076,
      "reserve": 7077,
      "implemented": 7078,
      "intellectual": 7079,
      "steam": 7080,
      "certific": 7081,
      "intensity": 7082,
      "polar": 7083,
      "mistake": 7084,
      "diversity": 7085,
      "bias": 7086,
      "featured": 7087,
      "##yers": 7088,
      "wedding": 7089,
      "yard": 7090,
      "commerce": 7091,
      "heavily": 7092,
      "##athers": 7093,
      "stations": 7094,
      "adam": 7095,
      "polymer": 7096,
      "commissioner": 7097,
      "temple": 7098,
      "contemporary": 7099,
      "illinois": 7100,
      "receptor": 7101,
      "advertising": 7102,
      "shadow": 7103,
      "regularly": 7104,
      "failing": 7105,
      "seed": 7106,
      "##fr": 7107,
      "contest": 7108,
      "esp": 7109,
      "copyright": 7110,
      "##ashed": 7111,
      "historic": 7112,
      "##37": 7113,
      "buck": 7114,
      "##met": 7115,
      "abstract": 7116,
      "lawsu": 7117,
      "connections": 7118,
      "menu": 7119,
      "tower": 7120,
      "##lined": 7121,
      "comprom": 7122,
      "challenging": 7123,
      "sod": 7124,
      "undert": 7125,
      "jam": 7126,
      "respondent": 7127,
      "presents": 7128,
      "##path": 7129,
      "1981": 7130,
      "atmosphere": 7131,
      "pel": 7132,
      "cleaning": 7133,
      "arent": 7134,
      "deck": 7135,
      "##scop": 7136,
      "##usc": 7137,
      "decor": 7138,
      "seasons": 7139,
      "ci": 7140,
      "handed": 7141,
      "manual": 7142,
      "pocket": 7143,
      "anger": 7144,
      "weigh": 7145,
      "##acent": 7146,
      "##etime": 7147,
      "replacement": 7148,
      "ford": 7149,
      "overwhel": 7150,
      "colleagues": 7151,
      "remainder": 7152,
      "module": 7153,
      "membrane": 7154,
      "bitcoin": 7155,
      "##pay": 7156,
      "shopping": 7157,
      "designs": 7158,
      "##right": 7159,
      "cum": 7160,
      "accordance": 7161,
      "ts": 7162,
      "bish": 7163,
      "orange": 7164,
      "concert": 7165,
      "adverse": 7166,
      "lect": 7167,
      "##sect": 7168,
      "greatly": 7169,
      "osc": 7170,
      "lying": 7171,
      "ster": 7172,
      "transferred": 7173,
      "solve": 7174,
      "province": 7175,
      "gross": 7176,
      "hed": 7177,
      "##stone": 7178,
      "printed": 7179,
      "##umes": 7180,
      "##amine": 7181,
      "estimate": 7182,
      "silent": 7183,
      "raising": 7184,
      "##isa": 7185,
      "eliz": 7186,
      "penns": 7187,
      "marijuana": 7188,
      "axis": 7189,
      "highway": 7190,
      "##inction": 7191,
      "ss": 7192,
      "##nament": 7193,
      "surely": 7194,
      "disability": 7195,
      "##ylvania": 7196,
      "ease": 7197,
      "##abeth": 7198,
      "dollar": 7199,
      "unusual": 7200,
      "mouse": 7201,
      "contents": 7202,
      "##otype": 7203,
      "statistical": 7204,
      "desper": 7205,
      "taylor": 7206,
      "enhanced": 7207,
      "consists": 7208,
      "israeli": 7209,
      "resc": 7210,
      "pill": 7211,
      "##stit": 7212,
      "measurements": 7213,
      "##38": 7214,
      "heaven": 7215,
      "desert": 7216,
      "creates": 7217,
      "container": 7218,
      "variation": 7219,
      "filing": 7220,
      "elsewhere": 7221,
      "omitted": 7222,
      "periods": 7223,
      "mathemat": 7224,
      "bearing": 7225,
      "targeted": 7226,
      "printing": 7227,
      "##ua": 7228,
      "explains": 7229,
      "attitude": 7230,
      "kr": 7231,
      "arrangement": 7232,
      "mothers": 7233,
      "rs": 7234,
      "viv": 7235,
      "dy": 7236,
      "##quar": 7237,
      "compound": 7238,
      "##rep": 7239,
      "yout": 7240,
      "significance": 7241,
      "##but": 7242,
      "##ologists": 7243,
      "reveal": 7244,
      "proph": 7245,
      "gods": 7246,
      "fiction": 7247,
      "talent": 7248,
      "islands": 7249,
      "##iary": 7250,
      "mountains": 7251,
      "electrode": 7252,
      "##ja": 7253,
      "angry": 7254,
      "pour": 7255,
      "##pan": 7256,
      "baseball": 7257,
      "1979": 7258,
      "fewer": 7259,
      "suggesting": 7260,
      "priority": 7261,
      "worldwide": 7262,
      "amended": 7263,
      "spain": 7264,
      ".[@": 7265,
      "va": 7266,
      "##athan": 7267,
      "interviews": 7268,
      "stayed": 7269,
      "gly": 7270,
      "thereof": 7271,
      "fool": 7272,
      "voting": 7273,
      "cyl": 7274,
      "reconst": 7275,
      "controlling": 7276,
      "qualified": 7277,
      "islamic": 7278,
      "doctrine": 7279,
      "##norm": 7280,
      "respective": 7281,
      "##rogen": 7282,
      "visitors": 7283,
      "##oted": 7284,
      "hoping": 7285,
      "speaker": 7286,
      "constructed": 7287,
      "exclusive": 7288,
      "parag": 7289,
      "sel": 7290,
      "insuff": 7291,
      "correlation": 7292,
      "stir": 7293,
      "##cules": 7294,
      "entering": 7295,
      "##elve": 7296,
      "plea": 7297,
      "ending": 7298,
      "reserv": 7299,
      "regulatory": 7300,
      "##60": 7301,
      "##adel": 7302,
      "mixture": 7303,
      "ak": 7304,
      "\"[": 7305,
      "concrete": 7306,
      "matrix": 7307,
      "enthus": 7308,
      "nich": 7309,
      "aimed": 7310,
      "terrible": 7311,
      "##min": 7312,
      "denial": 7313,
      "georgia": 7314,
      "peoples": 7315,
      "perceived": 7316,
      "bang": 7317,
      "##erior": 7318,
      "guest": 7319,
      "ryan": 7320,
      "calm": 7321,
      "##wart": 7322,
      "##enda": 7323,
      "fifty": 7324,
      "##ester": 7325,
      "forever": 7326,
      "admission": 7327,
      "##acing": 7328,
      "##ifier": 7329,
      "rice": 7330,
      "forum": 7331,
      "independence": 7332,
      "physi": 7333,
      "stronger": 7334,
      "alert": 7335,
      "peripher": 7336,
      "applies": 7337,
      "##ads": 7338,
      "suicide": 7339,
      "saved": 7340,
      "consequently": 7341,
      "pros": 7342,
      "pace": 7343,
      "tomor": 7344,
      "characterized": 7345,
      "nin": 7346,
      "sees": 7347,
      "##chester": 7348,
      "persu": 7349,
      "reprodu": 7350,
      "##omed": 7351,
      "##plant": 7352,
      "asian": 7353,
      "tracks": 7354,
      "automatic": 7355,
      "sentencing": 7356,
      "penalty": 7357,
      "worker": 7358,
      "afghan": 7359,
      "volunt": 7360,
      "##gments": 7361,
      "enterprise": 7362,
      "hou": 7363,
      "##ati": 7364,
      "##oning": 7365,
      "cha": 7366,
      "execution": 7367,
      "monthly": 7368,
      "##ught": 7369,
      "twelve": 7370,
      "viet": 7371,
      "##eman": 7372,
      "rarely": 7373,
      "##worth": 7374,
      "hospitals": 7375,
      "##rolog": 7376,
      "thinks": 7377,
      "representatives": 7378,
      "ads": 7379,
      "wireless": 7380,
      "personality": 7381,
      "suppose": 7382,
      "##ador": 7383,
      "##adium": 7384,
      "wik": 7385,
      "tape": 7386,
      "lands": 7387,
      "##e2x80x9": 7388,
      "fract": 7389,
      "##section": 7390,
      "administer": 7391,
      "handling": 7392,
      "##operative": 7393,
      "ink": 7394,
      "beneath": 7395,
      "literally": 7396,
      "estimates": 7397,
      "##iner": 7398,
      "hr": 7399,
      "syria": 7400,
      "##eli": 7401,
      "legislative": 7402,
      "unt": 7403,
      "routine": 7404,
      "conversion": 7405,
      "nutrition": 7406,
      "analyzed": 7407,
      "heter": 7408,
      "lind": 7409,
      "versions": 7410,
      "##agram": 7411,
      "farmers": 7412,
      "captured": 7413,
      "kir": 7414,
      "exciting": 7415,
      "incomp": 7416,
      "rating": 7417,
      "reputation": 7418,
      "stuck": 7419,
      "belt": 7420,
      "patri": 7421,
      "correctly": 7422,
      "gran": 7423,
      "improvements": 7424,
      "##onal": 7425,
      "pennsylvania": 7426,
      "clause": 7427,
      "actor": 7428,
      "##wa": 7429,
      "edward": 7430,
      "##eted": 7431,
      "therapeutic": 7432,
      "5th": 7433,
      "##sts": 7434,
      "##alities": 7435,
      "programme": 7436,
      "naz": 7437,
      "budd": 7438,
      "kent": 7439,
      "wouldnt": 7440,
      "anc": 7441,
      "marine": 7442,
      "expectations": 7443,
      "couldnt": 7444,
      "stroke": 7445,
      "duties": 7446,
      "contribution": 7447,
      "void": 7448,
      "##bell": 7449,
      "morph": 7450,
      "attorneys": 7451,
      "integration": 7452,
      "lov": 7453,
      "tong": 7454,
      "##uten": 7455,
      "001": 7456,
      "600": 7457,
      "frequent": 7458,
      "##hyd": 7459,
      "holly": 7460,
      "rats": 7461,
      "##39": 7462,
      "forty": 7463,
      "compos": 7464,
      "residence": 7465,
      "##bits": 7466,
      "adds": 7467,
      "_s": 7468,
      "invited": 7469,
      "everywhere": 7470,
      "compliance": 7471,
      "mild": 7472,
      "harry": 7473,
      "mp": 7474,
      "dict": 7475,
      "cuts": 7476,
      "gained": 7477,
      "gif": 7478,
      "##mes": 7479,
      "offensive": 7480,
      "alongside": 7481,
      "##cont": 7482,
      "##law": 7483,
      "dish": 7484,
      "hopes": 7485,
      "chicken": 7486,
      "sac": 7487,
      "engagement": 7488,
      "##advant": 7489,
      "##ensional": 7490,
      "cellular": 7491,
      "##sem": 7492,
      "exhibit": 7493,
      "resign": 7494,
      "prevalence": 7495,
      "theatre": 7496,
      "##pson": 7497,
      "##ourage": 7498,
      "guitar": 7499,
      "unlik": 7500,
      "##48": 7501,
      "prelim": 7502,
      "consciousness": 7503,
      "promised": 7504,
      "losses": 7505,
      "citing": 7506,
      "##32": 7507,
      "wherein": 7508,
      "anne": 7509,
      "neutral": 7510,
      "cataly": 7511,
      "convey": 7512,
      "reply": 7513,
      "tomorrow": 7514,
      "##otted": 7515,
      "abnorm": 7516,
      "brill": 7517,
      "strategic": 7518,
      "71": 7519,
      "##ipe": 7520,
      "scenes": 7521,
      "gast": 7522,
      "utility": 7523,
      "delight": 7524,
      "stup": 7525,
      "permission": 7526,
      "##weight": 7527,
      "complications": 7528,
      "meal": 7529,
      "cigar": 7530,
      "repeat": 7531,
      "conspiracy": 7532,
      "weekly": 7533,
      "displayed": 7534,
      "writes": 7535,
      "languages": 7536,
      "painting": 7537,
      "sau": 7538,
      "votes": 7539,
      "##asty": 7540,
      "vertical": 7541,
      "##mann": 7542,
      "collective": 7543,
      "##inter": 7544,
      "divor": 7545,
      "##era": 7546,
      "hamm": 7547,
      "##verty": 7548,
      "gluc": 7549,
      "##azz": 7550,
      "##icacy": 7551,
      "regime": 7552,
      "disadvant": 7553,
      "##ystem": 7554,
      "width": 7555,
      "ont": 7556,
      "moderate": 7557,
      "desirable": 7558,
      "spectrum": 7559,
      "1978": 7560,
      "##plo": 7561,
      "gov": 7562,
      "compounds": 7563,
      "conclusions": 7564,
      "provider": 7565,
      "custody": 7566,
      "admit": 7567,
      "algorithm": 7568,
      "pit": 7569,
      "##edia": 7570,
      "prize": 7571,
      "hub": 7572,
      "wolf": 7573,
      "physician": 7574,
      "scored": 7575,
      "ell": 7576,
      "hd": 7577,
      "##orph": 7578,
      "##bra": 7579,
      "concepts": 7580,
      "vessel": 7581,
      "faculty": 7582,
      "poverty": 7583,
      "metabol": 7584,
      "folks": 7585,
      "managing": 7586,
      "disk": 7587,
      "horm": 7588,
      "mood": 7589,
      "unlikely": 7590,
      "reson": 7591,
      "concentrations": 7592,
      "maintaining": 7593,
      "##mo": 7594,
      "sid": 7595,
      "harder": 7596,
      "irre": 7597,
      "inspect": 7598,
      "hybr": 7599,
      "shout": 7600,
      "femin": 7601,
      "overcome": 7602,
      "loyal": 7603,
      "##ologic": 7604,
      "##apse": 7605,
      "winner": 7606,
      "contributed": 7607,
      "worksh": 7608,
      "emotion": 7609,
      "latin": 7610,
      "elizabeth": 7611,
      "##ributes": 7612,
      "youtube": 7613,
      "##itory": 7614,
      "deem": 7615,
      "##olit": 7616,
      "fbi": 7617,
      "affili": 7618,
      "artific": 7619,
      "lewis": 7620,
      "spell": 7621,
      "senator": 7622,
      "keeps": 7623,
      "butt": 7624,
      "satisfied": 7625,
      "politicians": 7626,
      "interventions": 7627,
      "palestin": 7628,
      "##isely": 7629,
      "dating": 7630,
      "diverse": 7631,
      "(*": 7632,
      "inev": 7633,
      "proceeding": 7634,
      "bike": 7635,
      "propag": 7636,
      "##oir": 7637,
      "##esome": 7638,
      "cul": 7639,
      "oxid": 7640,
      "opinions": 7641,
      "nose": 7642,
      "bills": 7643,
      "survive": 7644,
      "sr": 7645,
      "##gi": 7646,
      "convicted": 7647,
      "separation": 7648,
      "recommendations": 7649,
      "turkey": 7650,
      "supplies": 7651,
      "cad": 7652,
      "spark": 7653,
      "##70": 7654,
      "legislature": 7655,
      "ker": 7656,
      "800": 7657,
      "nm": 7658,
      "recurr": 7659,
      "recon": 7660,
      "formula": 7661,
      "##fol": 7662,
      "mt": 7663,
      "burning": 7664,
      "##list": 7665,
      "##des": 7666,
      "pic": 7667,
      "adjacent": 7668,
      "##inger": 7669,
      "stake": 7670,
      "##ila": 7671,
      "commander": 7672,
      "effectiveness": 7673,
      "##ez": 7674,
      "##oming": 7675,
      "supporters": 7676,
      "82": 7677,
      "guests": 7678,
      "##han": 7679,
      "gor": 7680,
      "sword": 7681,
      "bible": 7682,
      "strip": 7683,
      "temperatures": 7684,
      "covering": 7685,
      "conj": 7686,
      "debut": 7687,
      "surfaces": 7688,
      "bm": 7689,
      "saving": 7690,
      "curt": 7691,
      "innovation": 7692,
      "constra": 7693,
      "\"}).": 7694,
      "html": 7695,
      "registration": 7696,
      "covers": 7697,
      "viewed": 7698,
      "##mar": 7699,
      "flowers": 7700,
      "##mates": 7701,
      "representing": 7702,
      "shoes": 7703,
      "nervous": 7704,
      "separated": 7705,
      "destruction": 7706,
      "si": 7707,
      "hip": 7708,
      "intro": 7709,
      "initiative": 7710,
      "remand": 7711,
      "acquis": 7712,
      "liberty": 7713,
      "fortun": 7714,
      "##55": 7715,
      "roughly": 7716,
      "waves": 7717,
      "simultaneously": 7718,
      "##erman": 7719,
      "vin": 7720,
      "dick": 7721,
      "static": 7722,
      "hook": 7723,
      "retirement": 7724,
      "lips": 7725,
      "eric": 7726,
      "##ema": 7727,
      "landscape": 7728,
      "[]": 7729,
      "guidance": 7730,
      "vect": 7731,
      "criticism": 7732,
      "establishment": 7733,
      "diagnostic": 7734,
      "drove": 7735,
      "observation": 7736,
      "92": 7737,
      "memories": 7738,
      "semi": 7739,
      "deleg": 7740,
      "##holders": 7741,
      "thermal": 7742,
      "indicating": 7743,
      "towns": 7744,
      "progressive": 7745,
      "computers": 7746,
      "beliefs": 7747,
      "ion": 7748,
      "decent": 7749,
      "##46": 7750,
      "1976": 7751,
      "spaces": 7752,
      "##onto": 7753,
      "##ifer": 7754,
      "fails": 7755,
      "narrative": 7756,
      "hey": 7757,
      "##ails": 7758,
      "]^": 7759,
      "subsid": 7760,
      "composed": 7761,
      "##etts": 7762,
      "defeat": 7763,
      "marg": 7764,
      "avenue": 7765,
      "declined": 7766,
      "developer": 7767,
      "funny": 7768,
      "roads": 7769,
      "anonym": 7770,
      "cooking": 7771,
      "outdo": 7772,
      "##ione": 7773,
      "legend": 7774,
      "hills": 7775,
      "worried": 7776,
      "------": 7777,
      "##active": 7778,
      "ineff": 7779,
      "drain": 7780,
      "##illance": 7781,
      "identical": 7782,
      "respondents": 7783,
      "permitted": 7784,
      "brush": 7785,
      "flexible": 7786,
      "ger": 7787,
      "cel": 7788,
      "ownership": 7789,
      "##icy": 7790,
      "pink": 7791,
      "appreciate": 7792,
      "rif": 7793,
      "##vere": 7794,
      "##eties": 7795,
      "proven": 7796,
      "pounds": 7797,
      "##born": 7798,
      "chat": 7799,
      "intermedi": 7800,
      "knee": 7801,
      "anch": 7802,
      "satell": 7803,
      "([": 7804,
      "bottle": 7805,
      "reflected": 7806,
      "minds": 7807,
      "railway": 7808,
      "preliminary": 7809,
      "paragraph": 7810,
      "##life": 7811,
      "extraord": 7812,
      "entity": 7813,
      "operator": 7814,
      "attribut": 7815,
      "grey": 7816,
      "tam": 7817,
      "premier": 7818,
      "incidence": 7819,
      "nap": 7820,
      "receiver": 7821,
      "sons": 7822,
      "lane": 7823,
      "##ali": 7824,
      "settle": 7825,
      "1975": 7826,
      "##emon": 7827,
      "ghost": 7828,
      "cla": 7829,
      "treatments": 7830,
      "##vd": 7831,
      "##omin": 7832,
      "sustained": 7833,
      "icon": 7834,
      "##friend": 7835,
      "measuring": 7836,
      "##itudes": 7837,
      "horses": 7838,
      "##terior": 7839,
      "seats": 7840,
      "portions": 7841,
      "alien": 7842,
      "surveillance": 7843,
      "tournament": 7844,
      "stadium": 7845,
      "ruled": 7846,
      "champion": 7847,
      "offices": 7848,
      "perception": 7849,
      "mes": 7850,
      "electricity": 7851,
      "minimal": 7852,
      "borrow": 7853,
      "specified": 7854,
      "advantages": 7855,
      "dreams": 7856,
      "shirt": 7857,
      "welf": 7858,
      "eb": 7859,
      "##49": 7860,
      "130": 7861,
      "directions": 7862,
      "##ko": 7863,
      "precisely": 7864,
      "shr": 7865,
      "notion": 7866,
      "cher": 7867,
      "serum": 7868,
      "enorm": 7869,
      "tears": 7870,
      "stephen": 7871,
      "jord": 7872,
      "reasonably": 7873,
      "dual": 7874,
      "sampl": 7875,
      "probability": 7876,
      "powder": 7877,
      "barely": 7878,
      "golf": 7879,
      "timing": 7880,
      "pharmac": 7881,
      "diameter": 7882,
      "transactions": 7883,
      "rome": 7884,
      "premium": 7885,
      "##fc": 7886,
      "##rell": 7887,
      "##bling": 7888,
      "contributions": 7889,
      "corps": 7890,
      "tied": 7891,
      "leaf": 7892,
      "breakfast": 7893,
      "translation": 7894,
      "1950": 7895,
      "courses": 7896,
      "1977": 7897,
      "franch": 7898,
      "stepped": 7899,
      "colorado": 7900,
      "##icially": 7901,
      "zealand": 7902,
      "medication": 7903,
      "licens": 7904,
      "tired": 7905,
      "refers": 7906,
      "##oscop": 7907,
      "repeatedly": 7908,
      "sixth": 7909,
      "injection": 7910,
      "smell": 7911,
      "topics": 7912,
      "cov": 7913,
      "castle": 7914,
      "dir": 7915,
      "scenario": 7916,
      "proxim": 7917,
      "dozen": 7918,
      "##47": 7919,
      "usage": 7920,
      "classification": 7921,
      "pist": 7922,
      "##agen": 7923,
      "bars": 7924,
      "arc": 7925,
      "##bro": 7926,
      "cot": 7927,
      "allegedly": 7928,
      "lon": 7929,
      "begun": 7930,
      "incorporated": 7931,
      "##iser": 7932,
      "holes": 7933,
      "defence": 7934,
      "seal": 7935,
      "##xual": 7936,
      "shaft": 7937,
      "coat": 7938,
      "efficacy": 7939,
      "defensive": 7940,
      "welfare": 7941,
      "prominent": 7942,
      "##organ": 7943,
      "##chron": 7944,
      "\\]": 7945,
      "controller": 7946,
      "##top": 7947,
      "##owa": 7948,
      "satisfaction": 7949,
      "insight": 7950,
      "inquiry": 7951,
      "pla": 7952,
      "factory": 7953,
      "wise": 7954,
      "lucky": 7955,
      "gallery": 7956,
      "oak": 7957,
      "unexp": 7958,
      "orch": 7959,
      "ticket": 7960,
      "##aa": 7961,
      "##sters": 7962,
      "harris": 7963,
      "##east": 7964,
      "##rupted": 7965,
      "impression": 7966,
      "executed": 7967,
      "aggreg": 7968,
      "thy": 7969,
      "columbia": 7970,
      "nfl": 7971,
      "81": 7972,
      "passes": 7973,
      "retrie": 7974,
      "gab": 7975,
      "retired": 7976,
      "ordin": 7977,
      "lists": 7978,
      "##agger": 7979,
      "bub": 7980,
      "expanded": 7981,
      "kat": 7982,
      "threatened": 7983,
      "pushing": 7984,
      "fought": 7985,
      "stupid": 7986,
      "matth": 7987,
      "fleet": 7988,
      "##aska": 7989,
      "fallen": 7990,
      "relating": 7991,
      "drum": 7992,
      "implant": 7993,
      "tracking": 7994,
      "supplied": 7995,
      "submit": 7996,
      "casual": 7997,
      "difficulties": 7998,
      "remembered": 7999,
      "chocol": 8000,
      "voted": 8001,
      "instances": 8002,
      "bunch": 8003,
      "rect": 8004,
      "##mun": 8005,
      "brian": 8006,
      "tob": 8007,
      "lifest": 8008,
      "blame": 8009,
      "91": 8010,
      "##plate": 8011,
      "##sm": 8012,
      "##cas": 8013,
      "heres": 8014,
      "poem": 8015,
      "cler": 8016,
      "implications": 8017,
      "mini": 8018,
      "##phy": 8019,
      "##emia": 8020,
      "anymore": 8021,
      "clothing": 8022,
      "coupled": 8023,
      "iphone": 8024,
      "consec": 8025,
      "##hl": 8026,
      "membership": 8027,
      "baseline": 8028,
      "guarantee": 8029,
      "graduate": 8030,
      "intense": 8031,
      "lever": 8032,
      "mining": 8033,
      "arrival": 8034,
      "therap": 8035,
      "referring": 8036,
      "arizona": 8037,
      "lamp": 8038,
      "##icks": 8039,
      "catal": 8040,
      "##ql": 8041,
      "somebody": 8042,
      "##31": 8043,
      "bin": 8044,
      "gathered": 8045,
      "citizen": 8046,
      "physicians": 8047,
      "assuming": 8048,
      "nursing": 8049,
      "##sis": 8050,
      "bedroom": 8051,
      "##omer": 8052,
      "jean": 8053,
      "beside": 8054,
      "availability": 8055,
      "dimensional": 8056,
      "##izer": 8057,
      "alliance": 8058,
      "])": 8059,
      "industries": 8060,
      "101": 8061,
      "pear": 8062,
      "producer": 8063,
      "\\<": 8064,
      "deals": 8065,
      "imperial": 8066,
      "##vation": 8067,
      "houston": 8068,
      "##adelph": 8069,
      "##employ": 8070,
      "##opher": 8071,
      "105": 8072,
      "matches": 8073,
      "mamm": 8074,
      "##omes": 8075,
      "##ji": 8076,
      "rolling": 8077,
      "locked": 8078,
      "instruments": 8079,
      "convinced": 8080,
      "ingredients": 8081,
      "fate": 8082,
      "accompanied": 8083,
      "moore": 8084,
      "shots": 8085,
      "existed": 8086,
      "threats": 8087,
      "adjusted": 8088,
      "pride": 8089,
      "horn": 8090,
      "tang": 8091,
      "emotions": 8092,
      "junior": 8093,
      "gotten": 8094,
      "ought": 8095,
      "##bury": 8096,
      "stun": 8097,
      "mah": 8098,
      "rav": 8099,
      "hypothesis": 8100,
      "entrance": 8101,
      "racial": 8102,
      "dor": 8103,
      "grid": 8104,
      "encounter": 8105,
      "installation": 8106,
      "keys": 8107,
      "mortgage": 8108,
      "silicon": 8109,
      "maps": 8110,
      "dates": 8111,
      "searching": 8112,
      "thickness": 8113,
      "toronto": 8114,
      "phrase": 8115,
      "contrad": 8116,
      "abandoned": 8117,
      "lift": 8118,
      "deeper": 8119,
      "vig": 8120,
      "visiting": 8121,
      "2nd": 8122,
      "molecules": 8123,
      "condem": 8124,
      "inches": 8125,
      "emerged": 8126,
      "sink": 8127,
      "consol": 8128,
      "predicted": 8129,
      "##flow": 8130,
      "cardiac": 8131,
      "##anny": 8132,
      "##ilton": 8133,
      "visits": 8134,
      "clinic": 8135,
      "incredible": 8136,
      "##umber": 8137,
      "diagnosed": 8138,
      "quote": 8139,
      "106": 8140,
      "lod": 8141,
      "lyn": 8142,
      "##gas": 8143,
      "awesome": 8144,
      "warri": 8145,
      "125": 8146,
      "hybrid": 8147,
      "ark": 8148,
      "basketball": 8149,
      "adoles": 8150,
      "punch": 8151,
      "strain": 8152,
      "##agan": 8153,
      "violated": 8154,
      "appellee": 8155,
      "dod": 8156,
      "deny": 8157,
      "stating": 8158,
      "cheese": 8159,
      "disaster": 8160,
      "pron": 8161,
      "racing": 8162,
      "updates": 8163,
      "pound": 8164,
      "hunting": 8165,
      "##90": 8166,
      "spa": 8167,
      "##occ": 8168,
      "discount": 8169,
      "nerve": 8170,
      "##ogenic": 8171,
      "spoken": 8172,
      "eligible": 8173,
      "1970": 8174,
      "prosecutor": 8175,
      "philadelph": 8176,
      "resem": 8177,
      "##ener": 8178,
      "tension": 8179,
      "oxford": 8180,
      "protective": 8181,
      "##ourse": 8182,
      "aims": 8183,
      "kings": 8184,
      "lawyers": 8185,
      "healing": 8186,
      "neighb": 8187,
      "##zer": 8188,
      "##orous": 8189,
      "currency": 8190,
      "managers": 8191,
      "fisher": 8192,
      "##oman": 8193,
      "unexpected": 8194,
      "ted": 8195,
      "merc": 8196,
      "flour": 8197,
      "##ptic": 8198,
      "transcript": 8199,
      "characteristic": 8200,
      "greg": 8201,
      "stamp": 8202,
      "##---": 8203,
      "clubs": 8204,
      "pipe": 8205,
      "surviv": 8206,
      "likes": 8207,
      "scotland": 8208,
      "1974": 8209,
      "brid": 8210,
      "gig": 8211,
      "rotation": 8212,
      "1973": 8213,
      "null": 8214,
      "transplant": 8215,
      "santa": 8216,
      "median": 8217,
      "##achus": 8218,
      "rehab": 8219,
      "##44": 8220,
      "impressive": 8221,
      "publishing": 8222,
      "feeding": 8223,
      "minority": 8224,
      "##imp": 8225,
      "##mers": 8226,
      "puts": 8227,
      "bent": 8228,
      "edit": 8229,
      "fn": 8230,
      "##uch": 8231,
      "loans": 8232,
      "calc": 8233,
      "##ogene": 8234,
      "occasionally": 8235,
      "##onia": 8236,
      "bund": 8237,
      "disclosure": 8238,
      "observations": 8239,
      "respir": 8240,
      "depri": 8241,
      "rober": 8242,
      "directors": 8243,
      "regarded": 8244,
      "knife": 8245,
      "incons": 8246,
      "drama": 8247,
      "adhes": 8248,
      "stom": 8249,
      "concurr": 8250,
      "leon": 8251,
      "auton": 8252,
      "##urd": 8253,
      "##no": 8254,
      "gut": 8255,
      "cosm": 8256,
      "ott": 8257,
      "transist": 8258,
      "emerging": 8259,
      "eggs": 8260,
      "perpet": 8261,
      "influenced": 8262,
      "arbitr": 8263,
      "immunity": 8264,
      "saud": 8265,
      "##burgh": 8266,
      "erred": 8267,
      "anderson": 8268,
      "focusing": 8269,
      "discussions": 8270,
      "##ials": 8271,
      "prayer": 8272,
      "smiled": 8273,
      "swing": 8274,
      "whit": 8275,
      "##utive": 8276,
      "korean": 8277,
      "##function": 8278,
      "##itarian": 8279,
      "darkness": 8280,
      "jenn": 8281,
      "albert": 8282,
      "tonight": 8283,
      "revol": 8284,
      "introduce": 8285,
      "alexander": 8286,
      "##attered": 8287,
      "##idav": 8288,
      "asks": 8289,
      "punishment": 8290,
      "enact": 8291,
      "complexity": 8292,
      "vulnerable": 8293,
      "attacked": 8294,
      "##lu": 8295,
      "publicly": 8296,
      "fid": 8297,
      "accessible": 8298,
      "pregnant": 8299,
      "##aid": 8300,
      "info": 8301,
      "bacteria": 8302,
      "##ington": 8303,
      "entre": 8304,
      "hob": 8305,
      "absent": 8306,
      "1972": 8307,
      "copies": 8308,
      "prosecution": 8309,
      "fantasy": 8310,
      "reactions": 8311,
      "##etically": 8312,
      "approached": 8313,
      "abund": 8314,
      "preparing": 8315,
      "bom": 8316,
      "infections": 8317,
      "##raine": 8318,
      "sciences": 8319,
      "dutch": 8320,
      "##wich": 8321,
      "philadelphia": 8322,
      "##atal": 8323,
      "cc": 8324,
      "chin": 8325,
      "bod": 8326,
      "virtually": 8327,
      "fert": 8328,
      "affidav": 8329,
      "phenomenon": 8330,
      "complaints": 8331,
      "##icular": 8332,
      "ross": 8333,
      "exped": 8334,
      "##enders": 8335,
      "bold": 8336,
      "fantastic": 8337,
      ":**": 8338,
      "damaged": 8339,
      "_m": 8340,
      "##itage": 8341,
      "debtor": 8342,
      "backed": 8343,
      "communicate": 8344,
      "identifying": 8345,
      "restrictions": 8346,
      "iowa": 8347,
      "excessive": 8348,
      "websites": 8349,
      ".**": 8350,
      "cer": 8351,
      "savings": 8352,
      "transf": 8353,
      "mutual": 8354,
      "exem": 8355,
      "shes": 8356,
      "acceptable": 8357,
      "enemies": 8358,
      "insufficient": 8359,
      "chances": 8360,
      "adventure": 8361,
      "spo": 8362,
      "sensors": 8363,
      "infected": 8364,
      "platforms": 8365,
      "appointment": 8366,
      "trumps": 8367,
      "compat": 8368,
      "##lessly": 8369,
      "lawsuit": 8370,
      "descript": 8371,
      "unne": 8372,
      "mud": 8373,
      "allen": 8374,
      "secured": 8375,
      "firms": 8376,
      "pulse": 8377,
      "##berry": 8378,
      "utter": 8379,
      "critics": 8380,
      "classified": 8381,
      "recruit": 8382,
      "provin": 8383,
      "heating": 8384,
      "abortion": 8385,
      "headquar": 8386,
      "hoped": 8387,
      "promotion": 8388,
      "pleased": 8389,
      "barb": 8390,
      "matthew": 8391,
      "hired": 8392,
      "cass": 8393,
      "##vi": 8394,
      "9th": 8395,
      "outs": 8396,
      "tickets": 8397,
      "comprises": 8398,
      "studying": 8399,
      "##gy": 8400,
      "removing": 8401,
      "trends": 8402,
      "nurse": 8403,
      "##iments": 8404,
      "warned": 8405,
      "unemploy": 8406,
      "jordan": 8407,
      "expense": 8408,
      "cb": 8409,
      "brilliant": 8410,
      "herein": 8411,
      "han": 8412,
      "artificial": 8413,
      "repro": 8414,
      "##rooms": 8415,
      "collaboration": 8416,
      "improper": 8417,
      "solely": 8418,
      "precise": 8419,
      "##elihood": 8420,
      "##etics": 8421,
      "##rons": 8422,
      "wins": 8423,
      "bbc": 8424,
      "lowest": 8425,
      "encouraged": 8426,
      "##achusetts": 8427,
      "aggressive": 8428,
      "##vascular": 8429,
      "incent": 8430,
      "gil": 8431,
      "adher": 8432,
      "##achel": 8433,
      "chocolate": 8434,
      "##olis": 8435,
      "taxpay": 8436,
      "genuine": 8437,
      "##tra": 8438,
      "##cus": 8439,
      "engineer": 8440,
      "woods": 8441,
      "bass": 8442,
      "##iano": 8443,
      "reporter": 8444,
      "##ounced": 8445,
      "claiming": 8446,
      "##cence": 8447,
      "sheriff": 8448,
      "##pie": 8449,
      "##conn": 8450,
      "##enz": 8451,
      "lifetime": 8452,
      "scand": 8453,
      "##oding": 8454,
      "designated": 8455,
      "acted": 8456,
      "attempting": 8457,
      "theories": 8458,
      "posit": 8459,
      "objection": 8460,
      "massachusetts": 8461,
      "denying": 8462,
      "merg": 8463,
      "lig": 8464,
      "lessons": 8465,
      "hopefully": 8466,
      "consequence": 8467,
      "rescue": 8468,
      "prejudice": 8469,
      "quantity": 8470,
      "landing": 8471,
      "hart": 8472,
      "pir": 8473,
      "##ped": 8474,
      "striking": 8475,
      "episodes": 8476,
      "admir": 8477,
      "resolve": 8478,
      "sizes": 8479,
      "nodded": 8480,
      "loose": 8481,
      "stretch": 8482,
      "kelly": 8483,
      "reci": 8484,
      "suspected": 8485,
      "tear": 8486,
      "fifteen": 8487,
      "heading": 8488,
      "jet": 8489,
      "horizont": 8490,
      "sufficiently": 8491,
      "correction": 8492,
      "partially": 8493,
      "physically": 8494,
      "##etary": 8495,
      "loaded": 8496,
      "essay": 8497,
      "#####": 8498,
      "##rics": 8499,
      "arrive": 8500,
      "honey": 8501,
      "##prene": 8502,
      "treating": 8503,
      "downtown": 8504,
      "diamond": 8505,
      "kevin": 8506,
      "addresses": 8507,
      "shook": 8508,
      "carcin": 8509,
      "##gent": 8510,
      "##laim": 8511,
      "hunt": 8512,
      "yog": 8513,
      "titles": 8514,
      "barrier": 8515,
      "hollywood": 8516,
      "interf": 8517,
      "analyt": 8518,
      "thrown": 8519,
      "constitute": 8520,
      "litigation": 8521,
      "##88": 8522,
      "riding": 8523,
      "males": 8524,
      "password": 8525,
      "##ois": 8526,
      "minnes": 8527,
      "roots": 8528,
      "bran": 8529,
      "advertisement": 8530,
      "centuries": 8531,
      "gradually": 8532,
      "distinguish": 8533,
      "fishing": 8534,
      "hits": 8535,
      "affirmed": 8536,
      "unnecess": 8537,
      "consistently": 8538,
      "##eterm": 8539,
      "christians": 8540,
      "ug": 8541,
      "vic": 8542,
      "horror": 8543,
      "dying": 8544,
      "switching": 8545,
      "##fit": 8546,
      "escap": 8547,
      "##99": 8548,
      "embed": 8549,
      "shipping": 8550,
      "joining": 8551,
      "pending": 8552,
      "lovely": 8553,
      "birthday": 8554,
      "##zzle": 8555,
      "##wan": 8556,
      "threw": 8557,
      "##wealth": 8558,
      ")).": 8559,
      "lincol": 8560,
      "pale": 8561,
      "actors": 8562,
      "occupied": 8563,
      "philipp": 8564,
      "adapted": 8565,
      "boot": 8566,
      "penet": 8567,
      "entreprene": 8568,
      "everyday": 8569,
      "cabinet": 8570,
      "connecting": 8571,
      "##eries": 8572,
      "certificate": 8573,
      "tony": 8574,
      "myster": 8575,
      "stomach": 8576,
      "jacob": 8577,
      "preferably": 8578,
      "cycl": 8579,
      "conform": 8580,
      "checked": 8581,
      "destination": 8582,
      "ai": 8583,
      "distinction": 8584,
      "thereafter": 8585,
      "##ifi": 8586,
      "acquisition": 8587,
      "##xy": 8588,
      "spray": 8589,
      "1000": 8590,
      "hypert": 8591,
      "atlantic": 8592,
      "##ighth": 8593,
      "##dp": 8594,
      "bands": 8595,
      "variations": 8596,
      "duke": 8597,
      "expertise": 8598,
      "shed": 8599,
      "wisdom": 8600,
      "underw": 8601,
      "ibid": 8602,
      "##rs": 8603,
      "kit": 8604,
      "nights": 8605,
      "sarah": 8606,
      "transformation": 8607,
      "curve": 8608,
      "##vereign": 8609,
      "stol": 8610,
      "agenda": 8611,
      "dramatic": 8612,
      "cooperation": 8613,
      "classical": 8614,
      "##cuse": 8615,
      "likewise": 8616,
      "alab": 8617,
      "screw": 8618,
      "ov": 8619,
      "cous": 8620,
      "enormous": 8621,
      "ze": 8622,
      "rick": 8623,
      "##war": 8624,
      "extraordinary": 8625,
      "caps": 8626,
      "legitimate": 8627,
      "accomplish": 8628,
      "resolved": 8629,
      "peer": 8630,
      "prisoners": 8631,
      "ft": 8632,
      "capabilities": 8633,
      "sovereign": 8634,
      "quoted": 8635,
      "restaurants": 8636,
      "bits": 8637,
      "tract": 8638,
      "comprising": 8639,
      "calculate": 8640,
      "##isons": 8641,
      "140": 8642,
      "spatial": 8643,
      "vag": 8644,
      "ethics": 8645,
      "waited": 8646,
      "104": 8647,
      "##onn": 8648,
      "creek": 8649,
      "##vas": 8650,
      "anton": 8651,
      "odds": 8652,
      "fraction": 8653,
      "coc": 8654,
      "commonwealth": 8655,
      "namely": 8656,
      "remarkable": 8657,
      "intake": 8658,
      "wage": 8659,
      "vend": 8660,
      "lifestyle": 8661,
      "ultra": 8662,
      "confusion": 8663,
      "palace": 8664,
      "##eenth": 8665,
      "102": 8666,
      "contacts": 8667,
      "inhab": 8668,
      "singer": 8669,
      "humanity": 8670,
      "ups": 8671,
      "##irus": 8672,
      "physics": 8673,
      "bry": 8674,
      "##ela": 8675,
      "happiness": 8676,
      "kansas": 8677,
      "officially": 8678,
      "surrounded": 8679,
      "interference": 8680,
      "facilitate": 8681,
      "pi": 8682,
      "##77": 8683,
      "tie": 8684,
      "residential": 8685,
      "##makers": 8686,
      "upcoming": 8687,
      "factual": 8688,
      "inflammatory": 8689,
      "##ira": 8690,
      "kenned": 8691,
      "clark": 8692,
      "confer": 8693,
      "insulin": 8694,
      "##iox": 8695,
      "pursue": 8696,
      "harass": 8697,
      "##rous": 8698,
      "blade": 8699,
      "beings": 8700,
      "browser": 8701,
      "havent": 8702,
      "authorized": 8703,
      "ranging": 8704,
      "toy": 8705,
      "bishop": 8706,
      "##ighters": 8707,
      "py": 8708,
      "imprison": 8709,
      "hanging": 8710,
      "relie": 8711,
      "turk": 8712,
      "boards": 8713,
      "shame": 8714,
      "completion": 8715,
      "jane": 8716,
      "lor": 8717,
      "suppress": 8718,
      "##case": 8719,
      "obligation": 8720,
      "##leton": 8721,
      "##lad": 8722,
      "attractive": 8723,
      "dies": 8724,
      "oreg": 8725,
      "contra": 8726,
      "_d": 8727,
      "funded": 8728,
      "##uate": 8729,
      "##ilation": 8730,
      "exit": 8731,
      "##aved": 8732,
      "cooling": 8733,
      "jar": 8734,
      "voices": 8735,
      "integrity": 8736,
      "##53": 8737,
      "inval": 8738,
      "##anth": 8739,
      "##apers": 8740,
      "##bow": 8741,
      "emissions": 8742,
      "brig": 8743,
      "##unct": 8744,
      "lincoln": 8745,
      "subd": 8746,
      "##rage": 8747,
      "dynamics": 8748,
      "##acco": 8749,
      "##ilst": 8750,
      "gaming": 8751,
      "##cling": 8752,
      "craw": 8753,
      "7th": 8754,
      "##hand": 8755,
      "coalition": 8756,
      "buried": 8757,
      "hud": 8758,
      "quoting": 8759,
      "dispos": 8760,
      "lease": 8761,
      "kg": 8762,
      "hi": 8763,
      "phones": 8764,
      "advised": 8765,
      "chee": 8766,
      "engines": 8767,
      "1968": 8768,
      "##urities": 8769,
      "equity": 8770,
      "elderly": 8771,
      "poison": 8772,
      "theater": 8773,
      "beck": 8774,
      "profits": 8775,
      "conservation": 8776,
      "announcement": 8777,
      "filling": 8778,
      "forgotten": 8779,
      "memorial": 8780,
      "diver": 8781,
      "##mony": 8782,
      "recipe": 8783,
      "cambridge": 8784,
      "echo": 8785,
      "restricted": 8786,
      "partly": 8787,
      "readily": 8788,
      "bonds": 8789,
      "cluster": 8790,
      "staying": 8791,
      "recre": 8792,
      "complement": 8793,
      "ancest": 8794,
      "pled": 8795,
      "outstanding": 8796,
      "wides": 8797,
      "acknowledged": 8798,
      "dent": 8799,
      "preventing": 8800,
      "merit": 8801,
      "##lar": 8802,
      "mans": 8803,
      "heritage": 8804,
      "supervis": 8805,
      "cultures": 8806,
      "howard": 8807,
      "lighting": 8808,
      "vaccine": 8809,
      "1971": 8810,
      "blast": 8811,
      "##rose": 8812,
      "##gm": 8813,
      "elite": 8814,
      "pressed": 8815,
      "barg": 8816,
      "traveling": 8817,
      "emper": 8818,
      "minnesota": 8819,
      "##acles": 8820,
      "dall": 8821,
      "contam": 8822,
      "synthesis": 8823,
      "migration": 8824,
      "importantly": 8825,
      "sleeping": 8826,
      "interval": 8827,
      "acceler": 8828,
      "reception": 8829,
      "##izz": 8830,
      "passenger": 8831,
      "indict": 8832,
      "invasion": 8833,
      "ot": 8834,
      "brut": 8835,
      "noting": 8836,
      "choosing": 8837,
      "160": 8838,
      "bears": 8839,
      "##cm": 8840,
      "affordable": 8841,
      "##olly": 8842,
      "wondering": 8843,
      "acceptance": 8844,
      "associate": 8845,
      "dressed": 8846,
      "reliability": 8847,
      "flaw": 8848,
      "copper": 8849,
      "accomplished": 8850,
      "ignore": 8851,
      "transmitted": 8852,
      "wrest": 8853,
      "suspended": 8854,
      "distant": 8855,
      "veteran": 8856,
      "loving": 8857,
      "shoulders": 8858,
      "railroad": 8859,
      "cameras": 8860,
      "trauma": 8861,
      "eag": 8862,
      "produces": 8863,
      "##mented": 8864,
      "##pton": 8865,
      "##ho": 8866,
      "acknowledge": 8867,
      "kong": 8868,
      "whisper": 8869,
      "vitro": 8870,
      "prospective": 8871,
      "briefly": 8872,
      "resort": 8873,
      "soldier": 8874,
      "dimensions": 8875,
      "##rett": 8876,
      "conqu": 8877,
      "courage": 8878,
      "muslims": 8879,
      "generating": 8880,
      "oxide": 8881,
      "java": 8882,
      "dimin": 8883,
      "robust": 8884,
      "##uild": 8885,
      "peripheral": 8886,
      "sant": 8887,
      "sect": 8888,
      "wanting": 8889,
      "timely": 8890,
      "rival": 8891,
      "evid": 8892,
      "curious": 8893,
      "rape": 8894,
      "resistant": 8895,
      "clay": 8896,
      "##uters": 8897,
      "agriculture": 8898,
      "optimal": 8899,
      "##bery": 8900,
      "births": 8901,
      "sequences": 8902,
      "retain": 8903,
      "reveals": 8904,
      "hire": 8905,
      "...\"": 8906,
      "veterans": 8907,
      "cyber": 8908,
      "##pread": 8909,
      "pt": 8910,
      "equipped": 8911,
      "signature": 8912,
      "seeks": 8913,
      "agreements": 8914,
      "excluded": 8915,
      "3rd": 8916,
      "##awa": 8917,
      "environments": 8918,
      "weird": 8919,
      "oregon": 8920,
      "##imm": 8921,
      "whilst": 8922,
      "females": 8923,
      "stabil": 8924,
      "beneficial": 8925,
      "checks": 8926,
      "mck": 8927,
      "engaging": 8928,
      "letting": 8929,
      "appellate": 8930,
      "dated": 8931,
      "legacy": 8932,
      "##ouri": 8933,
      "josh": 8934,
      "boxes": 8935,
      "comic": 8936,
      "!'": 8937,
      "ij": 8938,
      "tissues": 8939,
      "discloses": 8940,
      "hong": 8941,
      "##ifice": 8942,
      "bother": 8943,
      "converted": 8944,
      "##heim": 8945,
      "##phones": 8946,
      "turb": 8947,
      "mall": 8948,
      "compass": 8949,
      "differently": 8950,
      "eager": 8951,
      "ears": 8952,
      "crossed": 8953,
      "assignment": 8954,
      "108": 8955,
      "vessels": 8956,
      "galax": 8957,
      "overr": 8958,
      "elevated": 8959,
      "##away": 8960,
      "promoting": 8961,
      "challenged": 8962,
      "hock": 8963,
      "##olar": 8964,
      "grate": 8965,
      "##lectric": 8966,
      "![": 8967,
      "overt": 8968,
      "wisc": 8969,
      "negotiations": 8970,
      "bitter": 8971,
      "divine": 8972,
      "##chain": 8973,
      "burst": 8974,
      "ale": 8975,
      "nurses": 8976,
      "stere": 8977,
      "##aria": 8978,
      "adoption": 8979,
      "muscles": 8980,
      "agricultural": 8981,
      "widespread": 8982,
      "conversations": 8983,
      "cultiv": 8984,
      "\":": 8985,
      "wooden": 8986,
      "rack": 8987,
      "automob": 8988,
      "oste": 8989,
      "activated": 8990,
      "motions": 8991,
      "##eping": 8992,
      "manufacturers": 8993,
      "ethnic": 8994,
      "adjustment": 8995,
      "rit": 8996,
      "bloom": 8997,
      "eliminate": 8998,
      "lav": 8999,
      "sail": 9000,
      "pitt": 9001,
      "##iley": 9002,
      "steady": 9003,
      "))": 9004,
      "deemed": 9005,
      "neglect": 9006,
      "upset": 9007,
      "berlin": 9008,
      "weakness": 9009,
      "##ribe": 9010,
      "saudi": 9011,
      "##eland": 9012,
      "overse": 9013,
      "hydrogen": 9014,
      "veloc": 9015,
      "1969": 9016,
      "loading": 9017,
      "##urt": 9018,
      "##apor": 9019,
      "loves": 9020,
      "circuits": 9021,
      "sentenced": 9022,
      "protecting": 9023,
      "establishing": 9024,
      "promising": 9025,
      "passengers": 9026,
      "asset": 9027,
      "corruption": 9028,
      "reflection": 9029,
      "nodes": 9030,
      "meaningful": 9031,
      "##elson": 9032,
      "featuring": 9033,
      "hearts": 9034,
      "breathing": 9035,
      "engineers": 9036,
      "pathway": 9037,
      "bullet": 9038,
      "foster": 9039,
      "kennedy": 9040,
      "regression": 9041,
      "afghanistan": 9042,
      "##cal": 9043,
      "jay": 9044,
      "##press": 9045,
      "occasions": 9046,
      "liv": 9047,
      "alabama": 9048,
      "dental": 9049,
      "gord": 9050,
      "##iar": 9051,
      "##cked": 9052,
      "communist": 9053,
      "opens": 9054,
      "tobacco": 9055,
      "pulling": 9056,
      "cardio": 9057,
      "mystery": 9058,
      "indirect": 9059,
      "wider": 9060,
      "20th": 9061,
      "reads": 9062,
      "convert": 9063,
      "anat": 9064,
      "reporters": 9065,
      "dominant": 9066,
      "quantum": 9067,
      "##ologically": 9068,
      "walker": 9069,
      "ko": 9070,
      "##pal": 9071,
      "rou": 9072,
      "wiscons": 9073,
      "scratch": 9074,
      "tent": 9075,
      "robot": 9076,
      "declaration": 9077,
      "##mate": 9078,
      "chron": 9079,
      "sanders": 9080,
      "weren": 9081,
      "##ogenesis": 9082,
      "photographs": 9083,
      "uncon": 9084,
      "parks": 9085,
      "##67": 9086,
      "incredibly": 9087,
      "aids": 9088,
      "allies": 9089,
      "##acon": 9090,
      "probe": 9091,
[...]
